{
    "Type": "WordPiece",
    "ContinuingSubwordPrefix": "##",
    "Vocab": {
         "0": 121,
         "1": 122,
         "2": 123,
         "3": 124,
         "4": 125,
         "5": 126,
         "6": 127,
         "7": 128,
         "8": 129,
         "9": 130,
         "10": 8108,
         "11": 8111,
         "12": 8110,
         "13": 8124,
         "14": 8122,
         "15": 8115,
         "16": 8121,
         "17": 8126,
         "18": 8123,
         "19": 8131,
         "20": 8113,
         "21": 8128,
         "22": 8130,
         "23": 8133,
         "24": 8125,
         "25": 8132,
         "26": 8153,
         "27": 8149,
         "28": 8143,
         "29": 8162,
         "30": 8114,
         "31": 8176,
         "32": 8211,
         "33": 8226,
         "34": 8229,
         "35": 8198,
         "36": 8216,
         "37": 8234,
         "38": 8218,
         "39": 8240,
         "40": 8164,
         "41": 8245,
         "42": 8239,
         "43": 8250,
         "44": 8252,
         "45": 8208,
         "46": 8248,
         "47": 8264,
         "48": 8214,
         "49": 8249,
         "50": 8145,
         "51": 8246,
         "52": 8247,
         "53": 8251,
         "54": 8267,
         "55": 8222,
         "56": 8259,
         "57": 8272,
         "58": 8255,
         "59": 8257,
         "60": 8183,
         "61": 8398,
         "62": 8356,
         "63": 8381,
         "64": 8308,
         "65": 8284,
         "66": 8347,
         "67": 8369,
         "68": 8360,
         "69": 8419,
         "70": 8203,
         "71": 8459,
         "72": 8325,
         "73": 8454,
         "74": 8473,
         "75": 8273,
         "76": 8399,
         "77": 8411,
         "78": 8409,
         "79": 8428,
         "80": 8188,
         "81": 8424,
         "82": 8460,
         "83": 8466,
         "84": 8479,
         "85": 8300,
         "86": 8352,
         "87": 8467,
         "88": 8302,
         "89": 8426,
         "90": 8192,
         "91": 8440,
         "92": 8394,
         "93": 8430,
         "94": 8416,
         "95": 8287,
         "96": 8378,
         "97": 8380,
         "98": 8327,
         "99": 8238,
         "100": 8135,
         "101": 8359,
         "102": 8667,
         "103": 8615,
         "104": 8503,
         "105": 8423,
         "106": 8438,
         "107": 8632,
         "108": 8692,
         "109": 8965,
         "110": 8406,
         "111": 8932,
         "112": 9017,
         "113": 8989,
         "114": 8866,
         "115": 8787,
         "116": 9070,
         "117": 9149,
         "118": 8966,
         "119": 9031,
         "120": 8290,
         "121": 9247,
         "122": 9203,
         "123": 8604,
         "124": 9377,
         "125": 8752,
         "126": 9022,
         "127": 9274,
         "128": 8848,
         "129": 8990,
         "130": 8463,
         "131": 9403,
         "132": 9306,
         "133": 9246,
         "134": 9146,
         "135": 8908,
         "136": 9015,
         "137": 9444,
         "138": 9209,
         "139": 9081,
         "140": 8468,
         "141": 9554,
         "142": 9621,
         "143": 9572,
         "144": 9494,
         "145": 9390,
         "146": 9630,
         "147": 9746,
         "148": 9640,
         "149": 9491,
         "150": 8269,
         "151": 9564,
         "152": 9653,
         "153": 9677,
         "154": 9220,
         "155": 9437,
         "156": 9508,
         "157": 9928,
         "158": 9412,
         "159": 9699,
         "160": 8522,
         "161": 9608,
         "162": 9565,
         "163": 8737,
         "164": 10048,
         "165": 9316,
         "166": 9771,
         "167": 10029,
         "168": 8832,
         "169": 9853,
         "170": 8725,
         "171": 9919,
         "172": 9801,
         "173": 10020,
         "174": 10134,
         "175": 9251,
         "176": 10004,
         "177": 10132,
         "178": 9649,
         "179": 9910,
         "180": 8420,
         "181": 10111,
         "182": 9952,
         "183": 9826,
         "184": 10116,
         "185": 9560,
         "186": 9833,
         "187": 10058,
         "188": 9460,
         "189": 10025,
         "190": 8979,
         "191": 10330,
         "192": 9319,
         "193": 10185,
         "194": 10457,
         "195": 9996,
         "196": 10220,
         "197": 10596,
         "198": 9776,
         "199": 9092,
         "200": 8185,
         "201": 9250,
         "202": 9707,
         "203": 9954,
         "204": 10080,
         "205": 9860,
         "206": 9899,
         "207": 10194,
         "208": 9894,
         "209": 10381,
         "210": 9083,
         "211": 9395,
         "212": 10164,
         "213": 10431,
         "214": 10267,
         "215": 10082,
         "216": 9972,
         "217": 10645,
         "218": 10224,
         "219": 10453,
         "220": 8796,
         "221": 10118,
         "222": 9918,
         "223": 10265,
         "224": 10629,
         "225": 9140,
         "226": 10436,
         "227": 10543,
         "228": 9152,
         "229": 10608,
         "230": 9111,
         "231": 10602,
         "232": 9863,
         "233": 9959,
         "234": 10129,
         "235": 8593,
         "236": 9671,
         "237": 10775,
         "238": 10308,
         "239": 10694,
         "240": 8821,
         "241": 10896,
         "242": 11056,
         "243": 10873,
         "244": 11179,
         "245": 10325,
         "246": 11003,
         "247": 11128,
         "248": 11009,
         "249": 10705,
         "250": 8401,
         "251": 10924,
         "252": 10968,
         "253": 10221,
         "254": 11251,
         "255": 9866,
         "256": 9745,
         "257": 11027,
         "258": 10870,
         "259": 10987,
         "260": 9044,
         "261": 10842,
         "262": 10975,
         "263": 10864,
         "264": 10212,
         "265": 8689,
         "266": 9674,
         "267": 11253,
         "268": 10729,
         "269": 11023,
         "270": 9282,
         "271": 11206,
         "272": 11281,
         "273": 10345,
         "274": 11482,
         "275": 10532,
         "276": 11173,
         "277": 11064,
         "278": 11191,
         "279": 11427,
         "280": 8933,
         "281": 10971,
         "282": 11431,
         "283": 11152,
         "284": 11437,
         "285": 10938,
         "286": 11367,
         "287": 11525,
         "288": 10332,
         "289": 11520,
         "290": 9845,
         "291": 11777,
         "292": 11542,
         "293": 11855,
         "294": 11865,
         "295": 11332,
         "296": 11545,
         "297": 11992,
         "298": 10690,
         "299": 9600,
         "300": 8209,
         "301": 9693,
         "302": 10563,
         "303": 11068,
         "304": 9627,
         "305": 10849,
         "306": 10576,
         "307": 10486,
         "308": 9793,
         "309": 11289,
         "310": 9643,
         "311": 10256,
         "312": 10578,
         "313": 11622,
         "314": 11725,
         "315": 9613,
         "316": 10743,
         "317": 11491,
         "318": 10189,
         "319": 10865,
         "320": 9144,
         "321": 9883,
         "322": 11965,
         "323": 11221,
         "324": 11500,
         "325": 10838,
         "326": 12044,
         "327": 12094,
         "328": 11580,
         "329": 11705,
         "330": 9611,
         "331": 11879,
         "332": 12308,
         "333": 10745,
         "334": 12225,
         "335": 11728,
         "336": 12073,
         "337": 12129,
         "338": 11929,
         "339": 11863,
         "340": 10049,
         "341": 12117,
         "342": 12362,
         "343": 12186,
         "344": 12698,
         "345": 11434,
         "346": 12380,
         "347": 12936,
         "348": 12687,
         "349": 12110,
         "350": 8612,
         "351": 12524,
         "352": 12091,
         "353": 12115,
         "354": 11848,
         "355": 11753,
         "356": 12215,
         "357": 12494,
         "358": 11429,
         "359": 12027,
         "360": 8286,
         "361": 11758,
         "362": 12711,
         "363": 12937,
         "364": 12673,
         "365": 8728,
         "366": 11949,
         "367": 12375,
         "368": 11642,
         "369": 11844,
         "370": 10011,
         "371": 12584,
         "372": 12607,
         "373": 12779,
         "374": 11948,
         "375": 11256,
         "376": 13118,
         "377": 13222,
         "378": 12770,
         "379": 12613,
         "380": 9406,
         "381": 12185,
         "382": 12163,
         "383": 12510,
         "384": 12344,
         "385": 11959,
         "386": 12303,
         "387": 12716,
         "388": 11632,
         "389": 12512,
         "390": 10370,
         "391": 13092,
         "392": 12254,
         "393": 12683,
         "394": 12728,
         "395": 12481,
         "396": 13008,
         "397": 12591,
         "398": 11425,
         "399": 9612,
         "400": 8230,
         "401": 11185,
         "402": 12040,
         "403": 12058,
         "404": 10524,
         "405": 11982,
         "406": 12563,
         "407": 12458,
         "408": 12189,
         "409": 12942,
         "410": 10706,
         "411": 12686,
         "412": 12346,
         "413": 12561,
         "414": 12815,
         "415": 12114,
         "416": 12453,
         "417": 13038,
         "418": 12978,
         "419": 13055,
         "420": 9784,
         "421": 12873,
         "422": 12721,
         "425": 11993,
         "426": 12408,
         "427": 12575,
         "428": 11351,
         "429": 13249,
         "430": 10352,
         "432": 13133,
         "433": 13131,
         "435": 11930,
         "438": 13174,
         "440": 10845,
         "441": 13013,
         "442": 13171,
         "444": 12876,
         "445": 12834,
         "448": 13078,
         "450": 8802,
         "451": 13068,
         "453": 12893,
         "455": 12404,
         "456": 12570,
         "457": 12119,
         "458": 12562,
         "460": 10685,
         "465": 12930,
         "468": 12944,
         "470": 10658,
         "475": 13243,
         "480": 9482,
         "485": 11763,
         "486": 12459,
         "488": 12789,
         "490": 10566,
         "495": 12895,
         "498": 12544,
         "499": 9927,
         "500": 8195,
         "501": 11884,
         "502": 11907,
         "503": 12929,
         "504": 12808,
         "505": 11033,
         "506": 11608,
         "508": 12328,
         "510": 10907,
         "511": 12677,
         "512": 11530,
         "513": 13310,
         "515": 13196,
         "516": 12635,
         "518": 8739,
         "520": 9038,
         "521": 11411,
         "522": 11510,
         "525": 11717,
         "530": 10830,
         "536": 12904,
         "539": 12995,
         "540": 10972,
         "543": 11895,
         "550": 9090,
         "555": 11723,
         "560": 10541,
         "570": 11594,
         "580": 10298,
         "588": 12426,
         "590": 11210,
         "591": 9512,
         "595": 13302,
         "599": 10713,
         "600": 8298,
         "601": 12104,
         "603": 13277,
         "610": 10248,
         "611": 12768,
         "616": 13226,
         "618": 9048,
         "620": 11078,
         "625": 12218,
         "626": 12463,
         "630": 10615,
         "640": 11410,
         "650": 9291,
         "660": 9936,
         "661": 10854,
         "666": 11186,
         "670": 11807,
         "680": 10255,
         "688": 10898,
         "690": 11960,
         "699": 10439,
         "700": 8389,
         "701": 12656,
         "705": 10595,
         "709": 12118,
         "710": 12415,
         "711": 12565,
         "720": 10503,
         "730": 11868,
         "737": 11933,
         "740": 13159,
         "747": 12331,
         "750": 9180,
         "760": 12456,
         "768": 12472,
         "770": 13215,
         "777": 9800,
         "780": 11493,
         "787": 13029,
         "790": 11793,
         "798": 12396,
         "799": 10882,
         "800": 8280,
         "801": 12566,
         "802": 10128,
         "810": 11296,
         "814": 11273,
         "816": 10937,
         "818": 12265,
         "820": 10398,
         "828": 13120,
         "830": 12428,
         "835": 10462,
         "838": 11462,
         "840": 12776,
         "850": 10205,
         "852": 11845,
         "855": 10998,
         "860": 12468,
         "863": 12874,
         "866": 11029,
         "867": 11932,
         "870": 10731,
         "880": 9987,
         "886": 12050,
         "888": 9389,
         "890": 12075,
         "897": 8747,
         "899": 12612,
         "900": 8567,
         "911": 9911,
         "920": 11976,
         "921": 12253,
         "925": 10711,
         "930": 12601,
         "950": 10468,
         "960": 10450,
         "970": 13314,
         "978": 8837,
         "980": 10536,
         "985": 11263,
         "990": 10278,
         "998": 13180,
         "999": 9098,
         "1000": 8212,
         "1001": 11823,
         "1010": 13266,
         "1020": 13223,
         "1024": 11570,
         "1080": 10680,
         "1100": 9393,
         "1111": 11954,
         "1200": 8552,
         "1234": 10343,
         "1250": 11591,
         "1280": 10350,
         "1300": 8925,
         "1350": 12809,
         "1389": 12853,
         "1400": 9439,
         "1500": 8443,
         "1600": 8903,
         "1700": 9641,
         "1800": 8961,
         "1840": 12571,
         "1850": 12631,
         "1860": 11990,
         "1867": 13042,
         "1868": 12590,
         "1870": 12720,
         "1871": 13262,
         "1880": 11348,
         "1882": 13273,
         "1884": 13007,
         "1885": 13124,
         "1886": 12935,
         "1888": 10988,
         "1889": 12116,
         "1890": 11787,
         "1893": 12927,
         "1894": 12221,
         "1895": 10794,
         "1896": 11833,
         "1897": 12084,
         "1898": 11459,
         "1899": 11886,
         "1900": 8985,
         "1901": 11113,
         "1902": 11487,
         "1903": 11295,
         "1904": 11035,
         "1905": 10196,
         "1906": 10959,
         "1907": 11111,
         "1908": 11046,
         "1909": 10943,
         "1910": 10428,
         "1911": 10041,
         "1912": 9855,
         "1913": 10432,
         "1914": 9837,
         "1915": 10649,
         "1916": 10772,
         "1917": 10199,
         "1918": 10106,
         "1919": 9915,
         "1920": 9208,
         "1921": 10033,
         "1922": 10209,
         "1923": 10236,
         "1924": 10052,
         "1925": 10087,
         "1926": 10126,
         "1927": 9620,
         "1928": 9672,
         "1929": 9792,
         "1930": 9275,
         "1931": 9639,
         "1932": 9737,
         "1933": 9657,
         "1934": 9823,
         "1935": 9523,
         "1936": 9481,
         "1937": 9166,
         "1938": 9429,
         "1939": 9459,
         "1940": 9211,
         "1941": 9327,
         "1942": 9480,
         "1943": 9540,
         "1944": 9462,
         "1945": 8799,
         "1946": 9120,
         "1947": 9253,
         "1948": 9130,
         "1949": 8594,
         "1950": 8707,
         "1951": 9387,
         "1952": 9241,
         "1953": 9268,
         "1954": 9258,
         "1955": 9043,
         "1956": 9076,
         "1957": 9088,
         "1958": 8955,
         "1959": 9110,
         "1960": 8779,
         "1961": 9199,
         "1962": 9121,
         "1963": 9155,
         "1964": 9129,
         "1965": 9141,
         "1966": 9093,
         "1967": 9128,
         "1968": 9045,
         "1969": 9073,
         "1970": 8464,
         "1971": 9061,
         "1972": 9027,
         "1973": 9062,
         "1974": 9072,
         "1975": 8974,
         "1976": 8911,
         "1977": 9060,
         "1978": 8774,
         "1979": 8706,
         "1980": 8499,
         "1981": 8785,
         "1982": 8687,
         "1983": 8715,
         "1984": 8655,
         "1985": 8630,
         "1986": 8629,
         "1987": 8622,
         "1988": 8571,
         "1989": 8528,
         "1990": 8431,
         "1991": 8555,
         "1992": 8508,
         "1993": 8516,
         "1994": 8447,
         "1995": 8396,
         "1996": 8432,
         "1997": 8387,
         "1998": 8368,
         "1999": 8338,
         "2000": 8202,
         "2001": 8285,
         "2002": 8301,
         "2003": 8263,
         "2004": 8258,
         "2005": 8232,
         "2006": 8213,
         "2007": 8201,
         "2008": 8182,
         "2009": 8170,
         "2010": 8166,
         "2011": 8163,
         "2012": 8151,
         "2013": 8138,
         "2014": 8127,
         "2015": 8119,
         "2016": 8112,
         "2017": 8109,
         "2018": 8271,
         "2019": 9160,
         "2020": 8439,
         "2021": 9960,
         "2022": 10550,
         "2025": 8950,
         "2030": 9787,
         "2050": 11931,
         "2100": 10247,
         "2200": 10191,
         "2300": 10000,
         "2345": 11209,
         "2400": 9851,
         "2500": 8720,
         "2600": 10496,
         "2700": 10930,
         "2756": 9397,
         "2765": 9513,
         "2800": 10347,
         "2900": 13044,
         "3000": 8283,
         "3100": 12100,
         "3200": 10337,
         "3300": 11543,
         "3400": 13294,
         "3500": 9252,
         "3600": 10517,
         "3800": 11433,
         "4000": 8442,
         "4066": 9607,
         "4200": 12395,
         "4399": 9922,
         "4500": 9805,
         "4600": 8826,
         "4800": 12488,
         "5000": 8262,
         "5500": 11298,
         "5757": 12007,
         "6000": 8412,
         "6221": 12580,
         "6500": 11247,
         "6606": 8754,
         "6991": 12918,
         "7000": 8800,
         "7500": 11271,
         "7866": 12081,
         "8000": 8623,
         "8591": 12376,
         "8891": 10546,
         "9000": 9117,
         "9595": 13043,
         "9678": 12057,
         "9985": 12839,
         "10000": 8769,
         "12000": 10520,
         "12306": 11914,
         "12345": 9700,
         "15000": 10064,
         "15058": 12347,
         "18000": 12499,
         "20000": 8875,
         "25000": 13251,
         "30000": 11158,
         "50000": 11750,
         "123456": 10644,
         "13913459": 12643,
         "573032185": 9970,
         "!": 106,
         "\"": 107,
         "#": 108,
         "##!": 13317,
         "##\"": 13318,
         "###": 13319,
         "##$": 13320,
         "##%": 13321,
         "##&": 13322,
         "##'": 13323,
         "##(": 13324,
         "##)": 13325,
         "##*": 13326,
         "##+": 13327,
         "##,": 13328,
         "##-": 13329,
         "##.": 13330,
         "##/": 13331,
         "##0": 8129,
         "##00": 8279,
         "##000": 9086,
         "##001": 9942,
         "##007": 12843,
         "##009": 11219,
         "##01": 8665,
         "##010": 11906,
         "##011": 12424,
         "##012": 12037,
         "##013": 11335,
         "##014": 11365,
         "##015": 8851,
         "##016": 8705,
         "##017": 8710,
         "##02": 8904,
         "##03": 9042,
         "##04": 9099,
         "##05": 8920,
         "##06": 8839,
         "##07": 9131,
         "##08": 9153,
         "##09": 9267,
         "##0m": 13079,
         "##0mm": 12483,
         "##1": 8148,
         "##10": 8311,
         "##100": 8823,
         "##1000": 10529,
         "##101": 11712,
         "##11": 8452,
         "##110": 12518,
         "##12": 8455,
         "##120": 12256,
         "##123": 9807,
         "##13": 8679,
         "##14": 8717,
         "##15": 8493,
         "##150": 12041,
         "##16": 8518,
         "##160": 12765,
         "##163": 11631,
         "##168": 11090,
         "##17": 8408,
         "##18": 8662,
         "##19": 8818,
         "##2": 8144,
         "##20": 8393,
         "##200": 9902,
         "##2000": 9842,
         "##2007": 10604,
         "##2008": 10545,
         "##2009": 9948,
         "##2010": 9546,
         "##2011": 9455,
         "##2012": 9285,
         "##2013": 9023,
         "##2014": 8951,
         "##2015": 8600,
         "##2016": 8386,
         "##2017": 8367,
         "##21": 8650,
         "##22": 8683,
         "##23": 8748,
         "##24": 8682,
         "##25": 8743,
         "##250": 12629,
         "##26": 8756,
         "##27": 8976,
         "##28": 8835,
         "##29": 8887,
         "##2c": 11935,
         "##2d": 12675,
         "##2f": 12971,
         "##3": 8152,
         "##30": 8471,
         "##300": 10097,
         "##3000": 13141,
         "##31": 8805,
         "##32": 8709,
         "##33": 8921,
         "##34": 9269,
         "##340": 12149,
         "##35": 8852,
         "##36": 9159,
         "##360": 10408,
         "##365": 10422,
         "##37": 9474,
         "##370": 13121,
         "##38": 9137,
         "##39": 9355,
         "##3c": 12031,
         "##3d": 10696,
         "##4": 8159,
         "##40": 8660,
         "##400": 10765,
         "##41": 9281,
         "##42": 9240,
         "##43": 9433,
         "##44": 9292,
         "##45": 9039,
         "##46": 9340,
         "##47": 9050,
         "##470": 12531,
         "##48": 8849,
         "##480": 11581,
         "##49": 9500,
         "##5": 8157,
         "##50": 8474,
         "##500": 9758,
         "##51": 9216,
         "##52": 9364,
         "##520": 13241,
         "##53": 9310,
         "##54": 9488,
         "##55": 8949,
         "##56": 9352,
         "##57": 9647,
         "##58": 9265,
         "##580": 10703,
         "##59": 9632,
         "##5s": 13201,
         "##6": 8158,
         "##60": 8581,
         "##600": 10346,
         "##61": 8978,
         "##62": 9290,
         "##63": 9373,
         "##64": 9165,
         "##65": 9331,
         "##66": 8952,
         "##67": 9411,
         "##68": 9105,
         "##69": 9398,
         "##7": 8161,
         "##70": 8740,
         "##700": 11551,
         "##71": 9097,
         "##72": 9492,
         "##73": 9148,
         "##74": 9743,
         "##75": 9183,
         "##750": 10969,
         "##76": 9624,
         "##77": 8959,
         "##78": 9136,
         "##79": 9495,
         "##8": 8156,
         "##80": 8538,
         "##800": 9988,
         "##81": 9313,
         "##82": 9605,
         "##83": 9559,
         "##84": 9545,
         "##85": 9169,
         "##86": 9219,
         "##87": 9446,
         "##88": 8544,
         "##888": 10053,
         "##89": 9402,
         "##9": 8160,
         "##90": 8599,
         "##900": 10589,
         "##91": 9332,
         "##92": 9595,
         "##93": 9676,
         "##94": 9723,
         "##95": 9102,
         "##96": 9419,
         "##97": 9410,
         "##98": 9215,
         "##99": 8653,
         "##999": 11430,
         "##:": 13332,
         "##;": 13333,
         "##<": 13334,
         "##=": 13335,
         "##>": 13336,
         "##?": 13337,
         "##@": 13338,
         "##[": 13339,
         "##\\": 13340,
         "##]": 13341,
         "##^": 13342,
         "##_": 13343,
         "##a": 8139,
         "##a1": 11414,
         "##a2": 12871,
         "##a5": 12540,
         "##aa": 10226,
         "##ab": 11008,
         "##abc": 12072,
         "##able": 9609,
         "##ac": 9202,
         "##ace": 10026,
         "##ach": 10289,
         "##ack": 11360,
         "##act": 12183,
         "##ad": 8695,
         "##ada": 11370,
         "##ade": 10233,
         "##ader": 11590,
         "##admin": 11454,
         "##ads": 12514,
         "##ae": 10361,
         "##af": 11472,
         "##aft": 12106,
         "##ag": 10814,
         "##age": 9103,
         "##ager": 13281,
         "##ague": 12998,
         "##ah": 9082,
         "##ai": 8982,
         "##aid": 11791,
         "##ail": 10923,
         "##ain": 9347,
         "##aine": 12554,
         "##air": 10908,
         "##ak": 9896,
         "##aka": 12417,
         "##ake": 9981,
         "##al": 8315,
         "##ala": 11658,
         "##ald": 13041,
         "##ale": 11079,
         "##alk": 11346,
         "##all": 10050,
         "##als": 12707,
         "##am": 8608,
         "##ama": 11135,
         "##ame": 10816,
         "##an": 8244,
         "##ana": 9335,
         "##ance": 9966,
         "##and": 9369,
         "##anda": 13300,
         "##ane": 10581,
         "##ang": 8688,
         "##ani": 13154,
         "##ann": 12464,
         "##ano": 10855,
         "##anonymoussaid": 10813,
         "##ans": 11159,
         "##ant": 9834,
         "##ao": 8731,
         "##ap": 8872,
         "##ape": 11706,
         "##app": 11259,
         "##ar": 8458,
         "##ara": 10225,
         "##ard": 9345,
         "##are": 10305,
         "##ari": 11172,
         "##ark": 11153,
         "##art": 9528,
         "##ary": 9277,
         "##as": 8576,
         "##ase": 10294,
         "##ash": 9889,
         "##asia": 11276,
         "##ass": 11904,
         "##ast": 9421,
         "##at": 8488,
         "##ata": 10449,
         "##ate": 9690,
         "##ath": 11486,
         "##ather": 12290,
         "##atic": 11080,
         "##ation": 8794,
         "##ations": 11517,
         "##ator": 11762,
         "##ats": 10841,
         "##ature": 10461,
         "##atus": 12283,
         "##au": 9096,
         "##av": 9876,
         "##ave": 12529,
         "##aw": 10922,
         "##ax": 10704,
         "##ay": 8760,
         "##b": 8204,
         "##ba": 8668,
         "##baby": 12515,
         "##back": 10102,
         "##ball": 11050,
         "##bank": 10980,
         "##bar": 11031,
         "##baru": 13257,
         "##base": 10918,
         "##bat": 12671,
         "##bay": 13200,
         "##bb": 10214,
         "##bbs": 12646,
         "##bby": 12832,
         "##bc": 9242,
         "##be": 8765,
         "##bee": 11162,
         "##bel": 12157,
         "##bell": 13110,
         "##ber": 8956,
         "##berg": 10039,
         "##berry": 10793,
         "##bert": 10491,
         "##bet": 9704,
         "##beth": 12101,
         "##bi": 9350,
         "##bia": 12596,
         "##bian": 11092,
         "##bike": 13276,
         "##bility": 13254,
         "##bin": 10448,
         "##bit": 9407,
         "##ble": 8862,
         "##blog": 10877,
         "##bo": 8820,
         "##board": 9472,
         "##body": 11326,
         "##bon": 12229,
         "##book": 8874,
         "##bor": 12268,
         "##bot": 10119,
         "##bow": 12559,
         "##box": 8927,
         "##boy": 11287,
         "##bra": 11552,
         "##bre": 12655,
         "##bs": 9071,
         "##bscribe": 12980,
         "##bt": 10161,
         "##bu": 11381,
         "##bug": 12351,
         "##burg": 12433,
         "##bus": 10151,
         "##by": 8684,
         "##c": 8177,
         "##ca": 8808,
         "##cake": 12814,
         "##cal": 10384,
         "##cam": 12438,
         "##can": 12632,
         "##car": 9831,
         "##card": 11644,
         "##care": 11014,
         "##cast": 13020,
         "##cat": 10869,
         "##cation": 11424,
         "##cc": 8860,
         "##cca": 13144,
         "##cd": 10340,
         "##ce": 8328,
         "##cel": 11786,
         "##cent": 11270,
         "##cept": 11877,
         "##cer": 10326,
         "##ces": 11463,
         "##cg": 11478,
         "##ch": 8370,
         "##cha": 11645,
         "##chat": 10720,
         "##che": 9763,
         "##chel": 10867,
         "##chen": 11595,
         "##cher": 10824,
         "##chi": 10525,
         "##ci": 9702,
         "##cia": 12382,
         "##cil": 11783,
         "##cing": 11540,
         "##city": 10747,
         "##ck": 8433,
         "##cker": 10603,
         "##cket": 10811,
         "##cks": 11495,
         "##cky": 11216,
         "##cl": 10753,
         "##cle": 11619,
         "##cm": 8341,
         "##cms": 12353,
         "##cm～": 13123,
         "##cn": 9435,
         "##co": 8588,
         "##code": 10802,
         "##coin": 10160,
         "##com": 9479,
         "##come": 12097,
         "##con": 10281,
         "##copyright": 13291,
         "##cord": 12291,
         "##core": 11921,
         "##count": 12369,
         "##covery": 12548,
         "##cp": 11057,
         "##cr": 13129,
         "##cs": 9761,
         "##ct": 8722,
         "##ction": 9116,
         "##ctionary": 13126,
         "##ctive": 11626,
         "##ctor": 9610,
         "##cts": 12175,
         "##cture": 11235,
         "##cus": 11609,
         "##cy": 8890,
         "##d": 8168,
         "##da": 8521,
         "##dan": 13184,
         "##dar": 12354,
         "##data": 11792,
         "##day": 8758,
         "##db": 9123,
         "##dc": 12251,
         "##dd": 9879,
         "##dden": 13109,
         "##de": 8510,
         "##ded": 11363,
         "##del": 13283,
         "##den": 10241,
         "##deo": 13000,
         "##der": 8960,
         "##des": 11211,
         "##desk": 13039,
         "##dge": 12025,
         "##dget": 11857,
         "##di": 9172,
         "##dia": 9360,
         "##dical": 13168,
         "##die": 11588,
         "##ding": 9755,
         "##dio": 12159,
         "##dium": 12787,
         "##dk": 12806,
         "##dm": 10420,
         "##dn": 10853,
         "##do": 8828,
         "##dog": 13315,
         "##dom": 11290,
         "##don": 12107,
         "##dot": 12402,
         "##down": 11140,
         "##dp": 11497,
         "##dr": 11582,
         "##dra": 12753,
         "##dragon": 12857,
         "##drive": 13115,
         "##ds": 8841,
         "##dt": 12672,
         "##du": 11202,
         "##dy": 8771,
         "##e": 8154,
         "##ea": 10073,
         "##ead": 12943,
         "##eam": 10430,
         "##ean": 10096,
         "##ear": 11979,
         "##ec": 9587,
         "##ect": 10862,
         "##ed": 8303,
         "##ee": 8854,
         "##een": 10929,
         "##eep": 12293,
         "##eet": 12412,
         "##ef": 9679,
         "##eg": 10935,
         "##eh": 12742,
         "##ei": 9384,
         "##ein": 11858,
         "##ek": 9534,
         "##el": 8472,
         "##ell": 9602,
         "##ella": 10311,
         "##ello": 13213,
         "##em": 9736,
         "##eme": 12538,
         "##ement": 11946,
         "##en": 8329,
         "##ena": 12000,
         "##ence": 10504,
         "##end": 11652,
         "##ene": 10600,
         "##eng": 9995,
         "##ens": 11550,
         "##ent": 8936,
         "##eo": 10232,
         "##ep": 11613,
         "##er": 8196,
         "##era": 10540,
         "##ere": 12865,
         "##ering": 12393,
         "##ern": 9814,
         "##ernel": 13272,
         "##erry": 11329,
         "##ers": 8755,
         "##erson": 11082,
         "##ert": 10707,
         "##ery": 11041,
         "##es": 8333,
         "##ese": 9692,
         "##ess": 9685,
         "##est": 10414,
         "##et": 8418,
         "##eting": 13216,
         "##ets": 12198,
         "##ett": 13151,
         "##ette": 13009,
         "##ev": 12054,
         "##ever": 11531,
         "##ew": 10795,
         "##ews": 13024,
         "##ex": 8870,
         "##ey": 8603,
         "##ez": 11640,
         "##f": 8189,
         "##f2016": 12769,
         "##fa": 9777,
         "##face": 12122,
         "##facebook": 12917,
         "##fc": 9717,
         "##fe": 9568,
         "##fer": 10967,
         "##ference": 11419,
         "##fet": 12089,
         "##ff": 9049,
         "##fi": 9864,
         "##field": 10901,
         "##fig": 11392,
         "##file": 12056,
         "##firm": 12240,
         "##fit": 11768,
         "##fl": 11690,
         "##flow": 11522,
         "##fly": 11983,
         "##fo": 10261,
         "##food": 12973,
         "##force": 10488,
         "##ford": 10283,
         "##fork": 10618,
         "##form": 12725,
         "##fr": 13245,
         "##free": 13287,
         "##fs": 9222,
         "##ft": 9002,
         "##fu": 12043,
         "##ful": 10291,
         "##fun": 11222,
         "##fw": 12851,
         "##fx": 13122,
         "##g": 8181,
         "##ga": 8676,
         "##gan": 10622,
         "##gar": 11742,
         "##gas": 12400,
         "##gate": 11695,
         "##gb": 9673,
         "##gc": 10817,
         "##ge": 8441,
         "##ged": 11765,
         "##gen": 10152,
         "##gence": 12932,
         "##ger": 9289,
         "##get": 10916,
         "##getrelax": 13198,
         "##gg": 9949,
         "##ggle": 11747,
         "##gh": 11304,
         "##ght": 9725,
         "##gi": 10006,
         "##gin": 10822,
         "##ging": 12374,
         "##gio": 12676,
         "##gion": 13258,
         "##gl": 11406,
         "##gle": 10098,
         "##gm": 11390,
         "##gma": 12880,
         "##gn": 12135,
         "##gnet": 13308,
         "##go": 8591,
         "##google": 10626,
         "##gp": 10932,
         "##graphy": 12872,
         "##ground": 13195,
         "##group": 13097,
         "##gs": 9726,
         "##gt": 12429,
         "##gy": 9765,
         "##h": 8199,
         "##ha": 8778,
         "##hai": 11828,
         "##ham": 9593,
         "##han": 9646,
         "##hang": 11869,
         "##hat": 12063,
         "##hc": 11100,
         "##hd": 9304,
         "##he": 9977,
         "##head": 11795,
         "##hen": 11602,
         "##her": 9856,
         "##here": 10659,
         "##hg": 12207,
         "##hi": 8963,
         "##hia": 12615,
         "##hin": 13098,
         "##hing": 10716,
         "##hip": 11489,
         "##hk": 11054,
         "##hl": 11831,
         "##hm": 13130,
         "##hn": 11781,
         "##ho": 9570,
         "##home": 10479,
         "##hone": 10271,
         "##hoo": 12638,
         "##hop": 11975,
         "##host": 12227,
         "##house": 9937,
         "##how": 13132,
         "##hp": 9990,
         "##hr": 10561,
         "##hs": 9551,
         "##ht": 12160,
         "##http": 11116,
         "##hu": 9670,
         "##hua": 13074,
         "##hur": 13190,
         "##hy": 9943,
         "##hz": 8686,
         "##i": 8169,
         "##ia": 8321,
         "##ial": 9501,
         "##ian": 8750,
         "##ias": 12803,
         "##ible": 12413,
         "##ic": 8317,
         "##ica": 9156,
         "##ical": 9430,
         "##ice": 8877,
         "##ich": 11578,
         "##ick": 9873,
         "##ico": 10641,
         "##icon": 12829,
         "##ics": 9034,
         "##id": 8601,
         "##ida": 12708,
         "##ide": 9552,
         "##ider": 11292,
         "##ie": 8402,
         "##iel": 11995,
         "##ien": 12023,
         "##ience": 13225,
         "##ier": 9181,
         "##ies": 8773,
         "##if": 9536,
         "##ification": 12820,
         "##ified": 13237,
         "##ift": 12401,
         "##ig": 11421,
         "##ight": 9558,
         "##iginal": 13099,
         "##ign": 11558,
         "##ii": 8917,
         "##ik": 10445,
         "##ika": 11378,
         "##ike": 11727,
         "##iki": 12434,
         "##iko": 11480,
         "##il": 8742,
         "##ile": 9729,
         "##ill": 9868,
         "##ils": 12223,
         "##ily": 11779,
         "##im": 9370,
         "##ima": 13028,
         "##ime": 11218,
         "##in": 8277,
         "##ina": 9314,
         "##ince": 13199,
         "##ine": 8620,
         "##iner": 12045,
         "##ing": 8221,
         "##ings": 10334,
         "##ini": 10489,
         "##ink": 11119,
         "##ino": 9846,
         "##ins": 9556,
         "##int": 9824,
         "##io": 8652,
         "##ion": 8410,
         "##ions": 11137,
         "##ious": 11737,
         "##ip": 9032,
         "##ique": 11324,
         "##ir": 8977,
         "##ira": 11630,
         "##ire": 9764,
         "##is": 8331,
         "##isa": 12170,
         "##ise": 9651,
         "##ish": 10574,
         "##ision": 12556,
         "##ism": 10627,
         "##ison": 10316,
         "##ist": 9527,
         "##it": 8500,
         "##ita": 10242,
         "##ite": 9538,
         "##ith": 11440,
         "##iti": 12644,
         "##ition": 11418,
         "##ito": 12899,
         "##itor": 12449,
         "##its": 11275,
         "##ity": 8863,
         "##itz": 12970,
         "##iu": 12425,
         "##ium": 9750,
         "##ius": 10392,
         "##ive": 8857,
         "##ivity": 12165,
         "##ix": 9330,
         "##ize": 11789,
         "##j": 8334,
         "##ja": 10067,
         "##ject": 12238,
         "##ji": 9343,
         "##jia": 12489,
         "##jiang": 12950,
         "##jie": 12732,
         "##jin": 13161,
         "##jing": 12128,
         "##jo": 9839,
         "##joy": 10284,
         "##js": 11124,
         "##ju": 10904,
         "##jun": 12915,
         "##jy": 13051,
         "##k": 8197,
         "##ka": 8693,
         "##kb": 10285,
         "##ke": 8537,
         "##ken": 11285,
         "##ker": 9013,
         "##ket": 11820,
         "##key": 9938,
         "##kg": 8714,
         "##khz": 12112,
         "##ki": 8614,
         "##kin": 12018,
         "##king": 9740,
         "##kins": 13084,
         "##kit": 11217,
         "##kk": 12693,
         "##km": 8879,
         "##ko": 8827,
         "##ks": 9457,
         "##ku": 9547,
         "##kv": 11145,
         "##kw": 10446,
         "##ky": 10218,
         "##l": 8178,
         "##la": 8461,
         "##lab": 11532,
         "##labels": 10636,
         "##lace": 12545,
         "##lam": 12953,
         "##lan": 9475,
         "##land": 8789,
         "##lar": 11208,
         "##las": 10113,
         "##last": 13177,
         "##late": 11523,
         "##lax": 12680,
         "##lay": 11969,
         "##lc": 11097,
         "##ld": 8635,
         "##le": 8268,
         "##lean": 13246,
         "##led": 10702,
         "##lee": 12448,
         "##len": 11407,
         "##lent": 12974,
         "##ler": 8871,
         "##les": 8937,
         "##less": 9920,
         "##let": 10780,
         "##lex": 11074,
         "##ley": 8930,
         "##lf": 9751,
         "##li": 8636,
         "##lia": 10336,
         "##lic": 11809,
         "##lie": 10158,
         "##life": 10359,
         "##light": 9638,
         "##lin": 9029,
         "##lina": 11585,
         "##line": 8762,
         "##lines": 13052,
         "##ling": 9426,
         "##link": 9989,
         "##lio": 12068,
         "##lis": 10820,
         "##lish": 13128,
         "##list": 10142,
         "##live": 11888,
         "##lk": 10758,
         "##ll": 8390,
         "##lla": 9585,
         "##lle": 9906,
         "##ller": 11284,
         "##lli": 13169,
         "##lling": 12903,
         "##llo": 11447,
         "##llow": 11200,
         "##lls": 11139,
         "##lly": 9456,
         "##lm": 9532,
         "##lmer": 12763,
         "##lo": 8897,
         "##load": 11713,
         "##lock": 11248,
         "##log": 11458,
         "##logy": 11121,
         "##lon": 10146,
         "##lone": 12519,
         "##lor": 12422,
         "##lot": 10580,
         "##love": 12564,
         "##low": 10962,
         "##lp": 10986,
         "##lr": 10712,
         "##ls": 8916,
         "##lt": 9238,
         "##lter": 12171,
         "##lton": 10377,
         "##lts": 12977,
         "##lu": 10079,
         "##lus": 11131,
         "##lution": 11843,
         "##lux": 12700,
         "##lv": 9084,
         "##lvin": 12745,
         "##ly": 8436,
         "##m": 8175,
         "##m2": 11916,
         "##ma": 8404,
         "##mah": 10394,
         "##mail": 10984,
         "##mall": 13307,
         "##man": 8490,
         "##mand": 12131,
         "##mann": 10750,
         "##map": 10909,
         "##mar": 11800,
         "##mark": 9882,
         "##master": 12959,
         "##mate": 12125,
         "##max": 10014,
         "##may": 11924,
         "##mb": 8517,
         "##mber": 10494,
         "##mbps": 12399,
         "##mc": 10307,
         "##md": 10638,
         "##me": 8505,
         "##med": 13089,
         "##media": 10970,
         "##men": 11839,
         "##ment": 8631,
         "##ments": 10444,
         "##mer": 9778,
         "##mes": 13060,
         "##mg": 8882,
         "##mhz": 9932,
         "##mi": 8625,
         "##mic": 11341,
         "##min": 9844,
         "##mine": 12723,
         "##ming": 10693,
         "##mini": 12391,
         "##mit": 11104,
         "##mix": 11091,
         "##ml": 8477,
         "##mll": 10682,
         "##mm": 8278,
         "##mma": 13292,
         "##mmy": 12137,
         "##mn": 11919,
         "##mo": 8788,
         "##mobile": 13217,
         "##mon": 10427,
         "##mond": 11423,
         "##moon": 12682,
         "##more": 11286,
         "##mp": 9085,
         "##mple": 12581,
         "##mporary": 12392,
         "##ms": 8884,
         "##mu": 12924,
         "##mus": 13090,
         "##mv": 13275,
         "##mw": 11504,
         "##my": 9009,
         "##n": 8171,
         "##n1": 11310,
         "##n2": 12750,
         "##na": 8374,
         "##name": 10509,
         "##nan": 12457,
         "##nap": 11546,
         "##nar": 12469,
         "##nba": 12360,
         "##nc": 10507,
         "##nce": 9056,
         "##nch": 11106,
         "##ncy": 10518,
         "##nd": 8735,
         "##nda": 12715,
         "##nder": 10493,
         "##ndi": 11874,
         "##ndy": 11373,
         "##ne": 8354,
         "##nel": 12827,
         "##ner": 8957,
         "##ners": 12550,
         "##nes": 10107,
         "##ness": 10077,
         "##net": 8914,
         "##new": 10654,
         "##news": 10040,
         "##next": 12397,
         "##ney": 10761,
         "##ng": 8291,
         "##nge": 10983,
         "##nger": 11533,
         "##ni": 8833,
         "##nia": 12664,
         "##nic": 12467,
         "##nie": 10519,
         "##night": 12734,
         "##ning": 9535,
         "##nis": 12334,
         "##nity": 11347,
         "##nix": 12955,
         "##nk": 9705,
         "##nm": 9359,
         "##nn": 9502,
         "##nne": 12866,
         "##nnis": 13004,
         "##nny": 13239,
         "##no": 8609,
         "##nome": 13125,
         "##nor": 12245,
         "##nos": 12782,
         "##note": 13062,
         "##now": 11371,
         "##np": 12798,
         "##ns": 8727,
         "##nse": 10996,
         "##nsis": 12263,
         "##nt": 8511,
         "##nter": 11526,
         "##nts": 12585,
         "##nus": 11316,
         "##ny": 8680,
         "##o": 8167,
         "##o2": 11110,
         "##oa": 11355,
         "##ob": 11047,
         "##oc": 9450,
         "##ock": 9069,
         "##od": 9308,
         "##ode": 10260,
         "##oe": 10115,
         "##of": 10150,
         "##og": 10800,
         "##oh": 12355,
         "##oi": 12577,
         "##oid": 10523,
         "##ok": 9185,
         "##oka": 12279,
         "##ol": 8798,
         "##ola": 12653,
         "##ology": 10277,
         "##om": 8810,
         "##oman": 13127,
         "##ome": 9893,
         "##on": 8224,
         "##ona": 11065,
         "##ond": 11684,
         "##one": 9021,
         "##ong": 9142,
         "##ons": 9961,
         "##onsored": 12504,
         "##oo": 8902,
         "##ood": 10919,
         "##ook": 10176,
         "##ool": 11627,
         "##oon": 12343,
         "##oot": 13187,
         "##op": 9133,
         "##ope": 11937,
         "##oper": 11468,
         "##or": 8372,
         "##ora": 11455,
         "##orage": 12669,
         "##ore": 9132,
         "##ories": 10939,
         "##orm": 10530,
         "##ors": 10903,
         "##ort": 10143,
         "##ory": 9428,
         "##os": 8470,
         "##osa": 12946,
         "##ose": 10936,
         "##ost": 12085,
         "##ot": 8783,
         "##other": 11759,
         "##oto": 11563,
         "##ou": 9857,
         "##oud": 12867,
         "##ough": 11600,
         "##ould": 11734,
         "##ound": 11477,
         "##our": 9832,
         "##ous": 9822,
         "##out": 9408,
         "##ov": 11689,
         "##ova": 13067,
         "##over": 11436,
         "##ow": 9024,
         "##own": 11751,
         "##ox": 9747,
         "##oy": 12532,
         "##oz": 13102,
         "##p": 8187,
         "##pa": 8797,
         "##pact": 12624,
         "##pad": 10730,
         "##page": 11817,
         "##pan": 12297,
         "##pass": 13206,
         "##pc": 10022,
         "##pd": 11693,
         "##pe": 8619,
         "##per": 9063,
         "##ph": 12465,
         "##pi": 9664,
         "##pin": 13248,
         "##ping": 10755,
         "##pl": 12569,
         "##play": 10324,
         "##ple": 10383,
         "##plus": 9682,
         "##pm": 9280,
         "##pmlast": 12138,
         "##pn": 12991,
         "##po": 9401,
         "##pods": 13284,
         "##point": 11112,
         "##pop": 13015,
         "##port": 9356,
         "##post": 11719,
         "##posted": 12717,
         "##pp": 9586,
         "##pper": 11413,
         "##ppy": 12738,
         "##pr": 11426,
         "##press": 12300,
         "##price": 13087,
         "##pro": 10538,
         "##ps": 8525,
         "##pt": 10789,
         "##pu": 11016,
         "##public": 13105,
         "##pus": 12657,
         "##put": 11300,
         "##px": 10605,
         "##py": 11610,
         "##q": 8326,
         "##qi": 11451,
         "##ql": 11083,
         "##qq": 10624,
         "##que": 9477,
         "##ques": 12503,
         "##r": 8180,
         "##r3": 12549,
         "##r4": 13032,
         "##ra": 8332,
         "##rade": 10287,
         "##rail": 12783,
         "##rain": 11944,
         "##ral": 10482,
         "##ram": 9661,
         "##rame": 13185,
         "##ran": 10477,
         "##rant": 10834,
         "##rap": 11893,
         "##raph": 12220,
         "##ration": 11103,
         "##ray": 10009,
         "##rc": 10227,
         "##rcle": 12466,
         "##rd": 8642,
         "##rder": 12658,
         "##rdon": 12702,
         "##re": 8358,
         "##rea": 12551,
         "##read": 10314,
         "##ream": 11714,
         "##rect": 13075,
         "##red": 9749,
         "##ree": 11621,
         "##reen": 10902,
         "##ren": 9489,
         "##rence": 12743,
         "##rent": 10858,
         "##res": 9683,
         "##ress": 11142,
         "##rex": 12437,
         "##rey": 11492,
         "##rf": 10531,
         "##rge": 10756,
         "##ri": 8641,
         "##ria": 10159,
         "##rial": 10358,
         "##rian": 12475,
         "##ric": 11748,
         "##rid": 10804,
         "##rie": 11062,
         "##ries": 11665,
         "##right": 11264,
         "##rin": 13250,
         "##ring": 10734,
         "##rio": 12062,
         "##rip": 12332,
         "##ris": 9848,
         "##rite": 11366,
         "##rity": 12079,
         "##rix": 13208,
         "##rk": 10364,
         "##rl": 9923,
         "##rley": 13290,
         "##rm": 9592,
         "##rma": 13156,
         "##rman": 11386,
         "##rmb": 10894,
         "##rmin": 13116,
         "##rn": 9256,
         "##rner": 11012,
         "##ro": 8607,
         "##ron": 8991,
         "##room": 12193,
         "##ros": 12409,
         "##row": 10570,
         "##rp": 9980,
         "##rr": 12579,
         "##rris": 11818,
         "##rry": 9249,
         "##rs": 8640,
         "##rss": 12281,
         "##rt": 8716,
         "##rtex": 12877,
         "##rth": 11207,
         "##ru": 10409,
         "##rum": 11075,
         "##rus": 10051,
         "##ry": 8449,
         "##s": 8118,
         "##sa": 8606,
         "##said": 8944,
         "##san": 10978,
         "##sc": 10203,
         "##sch": 13107,
         "##sco": 11364,
         "##sd": 10117,
         "##sday": 12956,
         "##se": 8417,
         "##self": 13061,
         "##sen": 10387,
         "##sent": 11836,
         "##ser": 9520,
         "##ses": 12856,
         "##set": 9852,
         "##sh": 8613,
         "##sha": 12772,
         "##share": 11042,
         "##shi": 9655,
         "##shine": 12922,
         "##ship": 11987,
         "##shop": 10940,
         "##shot": 11125,
         "##si": 9182,
         "##sia": 12557,
         "##side": 11756,
         "##sio": 12266,
         "##sion": 9224,
         "##sis": 10500,
         "##sit": 12618,
         "##site": 11479,
         "##sk": 8998,
         "##skip": 12724,
         "##sky": 11700,
         "##sl": 11066,
         "##sm": 10244,
         "##sn": 12480,
         "##so": 9974,
         "##sol": 12257,
         "##son": 8535,
         "##sp": 10367,
         "##space": 12246,
         "##ss": 8565,
         "##sse": 12754,
         "##ssion": 12726,
         "##sson": 12582,
         "##st": 8415,
         "##sta": 10949,
         "##stack": 12511,
         "##star": 10297,
         "##ste": 11881,
         "##ster": 8996,
         "##stin": 12921,
         "##stle": 13026,
         "##ston": 10229,
         "##stone": 12795,
         "##stro": 12976,
         "##stry": 11001,
         "##style": 10001,
         "##su": 11442,
         "##sue": 11872,
         "##sun": 11798,
         "##sy": 10178,
         "##t": 8165,
         "##t00": 9260,
         "##ta": 8383,
         "##table": 12477,
         "##tag": 11882,
         "##tags": 11313,
         "##tail": 11662,
         "##tal": 9917,
         "##talk": 12534,
         "##tan": 10105,
         "##tant": 12028,
         "##tar": 10216,
         "##tation": 12386,
         "##tax": 13155,
         "##tb": 11126,
         "##tc": 10149,
         "##tch": 9496,
         "##te": 8299,
         "##tech": 11761,
         "##ted": 9255,
         "##tee": 12729,
         "##tein": 12508,
         "##tel": 11246,
         "##ten": 11598,
         "##ter": 8457,
         "##ters": 12017,
         "##tes": 9420,
         "##test": 11574,
         "##text": 11816,
         "##tf": 11359,
         "##th": 8414,
         "##the": 11334,
         "##ther": 10198,
         "##thing": 12012,
         "##ti": 9007,
         "##tic": 9759,
         "##tical": 11912,
         "##tics": 11130,
         "##tier": 11955,
         "##ties": 11199,
         "##time": 9785,
         "##times": 12288,
         "##tin": 10400,
         "##tina": 10584,
         "##ting": 9107,
         "##tings": 13288,
         "##tion": 8361,
         "##tional": 11852,
         "##tions": 9652,
         "##tis": 10827,
         "##tive": 9741,
         "##tl": 12305,
         "##tle": 11283,
         "##tm": 10774,
         "##tment": 12986,
         "##to": 8527,
         "##tom": 11686,
         "##ton": 8626,
         "##tone": 11902,
         "##top": 10075,
         "##tor": 8713,
         "##tore": 12941,
         "##tors": 13270,
         "##tory": 12608,
         "##tos": 12920,
         "##town": 11323,
         "##tp": 10880,
         "##tr": 11309,
         "##tra": 9808,
         "##trix": 12749,
         "##tro": 11343,
         "##try": 11589,
         "##ts": 8723,
         "##tsu": 12230,
         "##tt": 9235,
         "##tta": 11245,
         "##tte": 9786,
         "##tter": 10766,
         "##tti": 11279,
         "##tto": 11403,
         "##tton": 11190,
         "##tty": 11160,
         "##tu": 10455,
         "##ture": 11704,
         "##tus": 10356,
         "##tv": 9171,
         "##tw": 12278,
         "##twitter": 12030,
         "##ty": 8661,
         "##type": 11085,
         "##tz": 10228,
         "##u": 8207,
         "##ua": 9478,
         "##ual": 10665,
         "##uality": 13145,
         "##uan": 9680,
         "##uard": 12589,
         "##ub": 10544,
         "##ube": 10957,
         "##uc": 13139,
         "##uce": 12051,
         "##uch": 12752,
         "##uck": 11971,
         "##ud": 9849,
         "##ude": 11997,
         "##ue": 8803,
         "##uel": 11866,
         "##ug": 11838,
         "##ugh": 12667,
         "##ui": 9273,
         "##uid": 12520,
         "##uk": 10687,
         "##ul": 10086,
         "##ula": 10456,
         "##ular": 10764,
         "##ule": 10724,
         "##ull": 12316,
         "##ult": 9766,
         "##um": 8545,
         "##uma": 13083,
         "##ume": 11465,
         "##ument": 11867,
         "##un": 8829,
         "##unch": 11294,
         "##und": 9914,
         "##ung": 9112,
         "##unge": 13077,
         "##uo": 9731,
         "##up": 8838,
         "##ur": 8685,
         "##ura": 10238,
         "##ure": 8813,
         "##urg": 13143,
         "##url": 12373,
         "##urn": 12760,
         "##urs": 11575,
         "##urt": 10857,
         "##ury": 11117,
         "##us": 8293,
         "##use": 10254,
         "##ush": 12670,
         "##ust": 12840,
         "##ut": 9194,
         "##ute": 9710,
         "##ux": 9549,
         "##uy": 12574,
         "##v": 8225,
         "##v4": 12507,
         "##va": 8786,
         "##val": 9957,
         "##van": 13045,
         "##vas": 12239,
         "##vc": 12077,
         "##vd": 10754,
         "##ve": 8519,
         "##ved": 11667,
         "##vel": 10588,
         "##ven": 10844,
         "##ver": 8984,
         "##verse": 11174,
         "##vertisement": 12021,
         "##ves": 11084,
         "##vg": 12781,
         "##vi": 9197,
         "##via": 9490,
         "##vic": 11956,
         "##vice": 10666,
         "##view": 8892,
         "##ville": 10388,
         "##vin": 10454,
         "##ving": 10369,
         "##vis": 11233,
         "##vm": 10318,
         "##vo": 10701,
         "##vr": 10131,
         "##vs": 11521,
         "##vy": 11853,
         "##w": 8220,
         "##wa": 9161,
         "##walk": 12621,
         "##walker": 12630,
         "##wan": 9951,
         "##wang": 10365,
         "##ward": 11612,
         "##ware": 10534,
         "##watch": 9907,
         "##way": 8824,
         "##ways": 11672,
         "##wd": 11681,
         "##we": 11722,
         "##web": 9944,
         "##wei": 12320,
         "##well": 9665,
         "##wen": 10861,
         "##wer": 10668,
         "##west": 11887,
         "##wf": 12242,
         "##wi": 10958,
         "##win": 10237,
         "##wing": 13070,
         "##wn": 10799,
         "##wo": 10911,
         "##wood": 9730,
         "##word": 10184,
         "##work": 12282,
         "##works": 10054,
         "##world": 10120,
         "##ws": 10402,
         "##wt": 12271,
         "##wu": 12144,
         "##www": 9718,
         "##x": 8206,
         "##x2": 12505,
         "##x5": 12704,
         "##xi": 10201,
         "##xon": 12854,
         "##xp": 11379,
         "##xt": 12452,
         "##xure": 12622,
         "##xx": 9517,
         "##xxx": 12812,
         "##xy": 11038,
         "##y": 8179,
         "##ya": 8741,
         "##yan": 10777,
         "##ye": 10522,
         "##yer": 10955,
         "##yi": 11017,
         "##ym": 12267,
         "##yn": 10879,
         "##yo": 10222,
         "##you": 12441,
         "##ys": 9449,
         "##yu": 10329,
         "##yy": 12642,
         "##z": 8253,
         "##za": 9283,
         "##ze": 9349,
         "##zen": 10549,
         "##zer": 10631,
         "##zi": 10112,
         "##zl": 12961,
         "##zo": 10121,
         "##zon": 10623,
         "##zone": 11004,
         "##zu": 13085,
         "##zy": 9748,
         "##zz": 9409,
         "##zzi": 12939,
         "##{": 13344,
         "##|": 13345,
         "##}": 13346,
         "##~": 13347,
         "##£": 13348,
         "##¤": 13349,
         "##¥": 13350,
         "##§": 13351,
         "##©": 13278,
         "##«": 13352,
         "##®": 8646,
         "##°": 8724,
         "##°c": 9953,
         "##±": 13353,
         "##²": 11699,
         "##³": 13354,
         "##µ": 13355,
         "##·": 13356,
         "##¹": 13357,
         "##º": 13358,
         "##»": 13359,
         "##¼": 13360,
         "##×": 9569,
         "##ß": 13361,
         "##æ": 13362,
         "##÷": 13363,
         "##ø": 13364,
         "##đ": 13365,
         "##ŋ": 13366,
         "##ɔ": 13367,
         "##ə": 13368,
         "##ɡ": 13369,
         "##ʰ": 13370,
         "##ˇ": 13371,
         "##ˈ": 13372,
         "##ˊ": 13373,
         "##ˋ": 13374,
         "##ˍ": 13375,
         "##ː": 13376,
         "##˙": 13377,
         "##˚": 13378,
         "##ˢ": 13379,
         "##α": 13380,
         "##β": 13381,
         "##γ": 13382,
         "##δ": 13383,
         "##ε": 13384,
         "##η": 13385,
         "##θ": 13386,
         "##ι": 13387,
         "##κ": 13388,
         "##λ": 13389,
         "##μ": 13390,
         "##ν": 13391,
         "##ο": 13392,
         "##π": 13393,
         "##ρ": 13394,
         "##ς": 13395,
         "##σ": 13396,
         "##τ": 13397,
         "##υ": 13398,
         "##φ": 13399,
         "##χ": 13400,
         "##ψ": 13401,
         "##ω": 10506,
         "##а": 11318,
         "##б": 13402,
         "##в": 13403,
         "##г": 13404,
         "##д": 13405,
         "##е": 13406,
         "##ж": 13407,
         "##з": 13408,
         "##и": 11000,
         "##к": 13409,
         "##л": 13410,
         "##м": 13411,
         "##н": 13412,
         "##о": 13413,
         "##п": 13414,
         "##р": 13415,
         "##с": 13416,
         "##т": 13417,
         "##у": 13418,
         "##ф": 13419,
         "##х": 13420,
         "##ц": 13421,
         "##ч": 13422,
         "##ш": 13423,
         "##ы": 13424,
         "##ь": 13425,
         "##я": 12992,
         "##і": 13426,
         "##ا": 13427,
         "##ب": 13428,
         "##ة": 13429,
         "##ت": 13430,
         "##د": 13431,
         "##ر": 13432,
         "##س": 13433,
         "##ع": 13434,
         "##ل": 13435,
         "##م": 13436,
         "##ن": 13437,
         "##ه": 13438,
         "##و": 13439,
         "##ي": 13440,
         "##۩": 13441,
         "##ก": 13442,
         "##ง": 13443,
         "##น": 13444,
         "##ม": 13445,
         "##ย": 13446,
         "##ร": 13447,
         "##อ": 13448,
         "##า": 13449,
         "##เ": 13450,
         "##๑": 13451,
         "##་": 13452,
         "##ღ": 13453,
         "##ᄀ": 13454,
         "##ᄁ": 13455,
         "##ᄂ": 13456,
         "##ᄃ": 13457,
         "##ᄅ": 13458,
         "##ᄆ": 13459,
         "##ᄇ": 13460,
         "##ᄈ": 13461,
         "##ᄉ": 13462,
         "##ᄋ": 13463,
         "##ᄌ": 13464,
         "##ᄎ": 13465,
         "##ᄏ": 13466,
         "##ᄐ": 13467,
         "##ᄑ": 13468,
         "##ᄒ": 13469,
         "##ᅡ": 10928,
         "##ᅢ": 13470,
         "##ᅣ": 13471,
         "##ᅥ": 13472,
         "##ᅦ": 13473,
         "##ᅧ": 13474,
         "##ᅨ": 13475,
         "##ᅩ": 13005,
         "##ᅪ": 13476,
         "##ᅬ": 13477,
         "##ᅭ": 13478,
         "##ᅮ": 13479,
         "##ᅯ": 13480,
         "##ᅲ": 13481,
         "##ᅳ": 13482,
         "##ᅴ": 13483,
         "##ᅵ": 10787,
         "##ᆨ": 11953,
         "##ᆫ": 9877,
         "##ᆯ": 11596,
         "##ᆷ": 13484,
         "##ᆸ": 13485,
         "##ᆺ": 13486,
         "##ᆻ": 13487,
         "##ᆼ": 10945,
         "##ᗜ": 13488,
         "##ᵃ": 13489,
         "##ᵉ": 13490,
         "##ᵍ": 13491,
         "##ᵏ": 13492,
         "##ᵐ": 13493,
         "##ᵒ": 13494,
         "##ᵘ": 13495,
         "##‖": 13496,
         "##„": 13497,
         "##†": 13498,
         "##•": 13499,
         "##‥": 13500,
         "##‧": 13501,
         "## ": 13502,
         "##‰": 13503,
         "##′": 13504,
         "##″": 13505,
         "##‹": 13506,
         "##›": 13507,
         "##※": 13508,
         "##‿": 13509,
         "##⁄": 13510,
         "##ⁱ": 13511,
         "##⁺": 13512,
         "##ⁿ": 13513,
         "##₁": 13514,
         "##₂": 12831,
         "##₃": 13515,
         "##₄": 13516,
         "##€": 13517,
         "##℃": 8320,
         "##№": 13518,
         "##™": 9221,
         "##ⅰ": 13519,
         "##ⅱ": 13520,
         "##ⅲ": 13521,
         "##ⅳ": 13522,
         "##ⅴ": 13523,
         "##←": 13018,
         "##↑": 10839,
         "##→": 10057,
         "##↓": 12414,
         "##↔": 13524,
         "##↗": 13525,
         "##↘": 13526,
         "##⇒": 13527,
         "##∀": 13528,
         "##−": 13529,
         "##∕": 13530,
         "##∙": 13531,
         "##√": 13532,
         "##∞": 13533,
         "##∟": 13534,
         "##∠": 13535,
         "##∣": 13536,
         "##∥": 10458,
         "##∩": 13537,
         "##∮": 13538,
         "##∶": 13539,
         "##∼": 13540,
         "##∽": 13541,
         "##≈": 13542,
         "##≒": 13543,
         "##≡": 13544,
         "##≤": 13545,
         "##≥": 13546,
         "##≦": 13547,
         "##≧": 13548,
         "##≪": 13549,
         "##≫": 13550,
         "##⊙": 13551,
         "##⋅": 13552,
         "##⋈": 13553,
         "##⋯": 13554,
         "##⌒": 13555,
         "##①": 13556,
         "##②": 13557,
         "##③": 13558,
         "##④": 13559,
         "##⑤": 13560,
         "##⑥": 13561,
         "##⑦": 13562,
         "##⑧": 13563,
         "##⑨": 13564,
         "##⑩": 13565,
         "##⑴": 13566,
         "##⑵": 13567,
         "##⑶": 13568,
         "##⑷": 13569,
         "##⑸": 13570,
         "##⒈": 13571,
         "##⒉": 13572,
         "##⒊": 13573,
         "##⒋": 13574,
         "##ⓒ": 13575,
         "##ⓔ": 13576,
         "##ⓘ": 13577,
         "##─": 11473,
         "##━": 13578,
         "##│": 11958,
         "##┃": 13579,
         "##┅": 13312,
         "##┆": 13580,
         "##┊": 13581,
         "##┌": 13582,
         "##└": 13583,
         "##├": 13584,
         "##┣": 13585,
         "##═": 13586,
         "##║": 13587,
         "##╚": 13588,
         "##╞": 13589,
         "##╠": 13590,
         "##╭": 13591,
         "##╮": 13592,
         "##╯": 13593,
         "##╰": 13594,
         "##╱": 13595,
         "##╳": 13596,
         "##▂": 13597,
         "##▃": 13598,
         "##▅": 13599,
         "##▇": 13600,
         "##█": 12740,
         "##▉": 13601,
         "##▋": 13602,
         "##▌": 13603,
         "##▍": 13604,
         "##▎": 13605,
         "##■": 10819,
         "##□": 13606,
         "##▪": 13607,
         "##▫": 13608,
         "##▬": 13609,
         "##▲": 9887,
         "##△": 13610,
         "##▶": 13611,
         "##►": 13612,
         "##▼": 10264,
         "##▽": 13613,
         "##◆": 10497,
         "##◆◆": 13019,
         "##◇": 13614,
         "##○": 10299,
         "##◎": 11375,
         "##●": 9037,
         "##◕": 13615,
         "##◠": 13616,
         "##◢": 13617,
         "##◤": 13618,
         "##☀": 13619,
         "##★": 8664,
         "##☆": 8994,
         "##☕": 13620,
         "##☞": 13621,
         "##☺": 13622,
         "##☼": 13623,
         "##♀": 13624,
         "##♂": 13625,
         "##♠": 13626,
         "##♡": 13627,
         "##♣": 13628,
         "##♥": 9177,
         "##♦": 13629,
         "##♪": 9458,
         "##♫": 13630,
         "##♬": 13631,
         "##✈": 13632,
         "##✔": 13633,
         "##✕": 13634,
         "##✖": 13635,
         "##✦": 13636,
         "##✨": 13637,
         "##✪": 13638,
         "##✰": 13639,
         "##✿": 13640,
         "##❀": 13641,
         "##❤": 10269,
         "##➜": 13642,
         "##➤": 13643,
         "##⦿": 13644,
         "##、": 13645,
         "##。": 13646,
         "##〃": 13647,
         "##々": 13648,
         "##〇": 13649,
         "##〈": 13650,
         "##〉": 13651,
         "##《": 13652,
         "##》": 13653,
         "##「": 13654,
         "##」": 13655,
         "##『": 13656,
         "##』": 13657,
         "##【": 13658,
         "##】": 13659,
         "##〓": 13660,
         "##〔": 13661,
         "##〕": 13662,
         "##〖": 13663,
         "##〗": 13664,
         "##〜": 13665,
         "##〝": 13666,
         "##〞": 13667,
         "##ぁ": 12661,
         "##あ": 12146,
         "##あなたに": 12774,
         "##あり": 9362,
         "##あります": 10700,
         "##ありません": 10769,
         "##ある": 9762,
         "##ぃ": 13668,
         "##い": 8524,
         "##いい": 12993,
         "##いた": 10526,
         "##いて": 10042,
         "##いました": 11350,
         "##います": 9184,
         "##いる": 9317,
         "##いるのて": 11443,
         "##う": 8981,
         "##ぇ": 13669,
         "##え": 11661,
         "##お": 8345,
         "##おり": 11438,
         "##おります": 9797,
         "##か": 8261,
         "##かあります": 12145,
         "##かった": 11299,
         "##かな": 13081,
         "##かも": 12984,
         "##から": 8825,
         "##かり": 11554,
         "##かる": 11571,
         "##き": 8816,
         "##きた": 12775,
         "##きました": 12055,
         "##きます": 12506,
         "##く": 8763,
         "##くたさい": 9175,
         "##くれる": 11241,
         "##け": 9525,
         "##けて": 12214,
         "##けと": 10095,
         "##ける": 11760,
         "##こ": 8557,
         "##こさいます": 10286,
         "##こと": 11127,
         "##ことか": 10274,
         "##ことかてきます": 13064,
         "##ことて": 11178,
         "##ことを": 12236,
         "##この": 11087,
         "##さ": 11647,
         "##さん": 10874,
         "##し": 8733,
         "##しい": 10899,
         "##した": 9442,
         "##して": 9379,
         "##しています": 12478,
         "##します": 9294,
         "##す": 8764,
         "##すか": 11805,
         "##する": 9840,
         "##せ": 10452,
         "##そ": 10778,
         "##その": 10372,
         "##た": 8856,
         "##たい": 10722,
         "##たけて": 12928,
         "##ため": 10312,
         "##ために": 12260,
         "##ち": 9967,
         "##ちの": 12712,
         "##ちは": 12951,
         "##ちゃん": 12875,
         "##っ": 12934,
         "##った": 9190,
         "##って": 9067,
         "##っています": 11822,
         "##っと": 10475,
         "##つ": 9775,
         "##て": 8312,
         "##てお": 12878,
         "##てきます": 11088,
         "##てきる": 11415,
         "##てす": 8504,
         "##てすか": 11278,
         "##ての": 12852,
         "##ては": 9809,
         "##ても": 10508,
         "##と": 8322,
         "##という": 12383,
         "##とう": 12471,
         "##とても": 13211,
         "##との": 13066,
         "##とは": 11896,
         "##な": 8730,
         "##ない": 8560,
         "##なから": 11943,
         "##なく": 10395,
         "##なたの": 11002,
         "##なった": 12102,
         "##なと": 11710,
         "##なら": 10145,
         "##なり": 11592,
         "##なりました": 12533,
         "##なります": 11293,
         "##なる": 11666,
         "##に": 8294,
         "##にお": 12337,
         "##には": 10410,
         "##ぬ": 13670,
         "##ね": 8900,
         "##の": 8227,
         "##のお": 10217,
         "##のか": 9584,
         "##のて": 8618,
         "##のてす": 12385,
         "##のてすか": 13221,
         "##のに": 12813,
         "##のは": 10093,
         "##は": 8319,
         "##ひ": 11224,
         "##ふ": 13671,
         "##へ": 11320,
         "##へて": 12864,
         "##ほ": 13672,
         "##ま": 9774,
         "##ました": 8861,
         "##ましょう": 10759,
         "##ます": 8643,
         "##ますのて": 13071,
         "##ません": 9035,
         "##ませんか": 9862,
         "##また": 13150,
         "##まて": 10737,
         "##み": 9344,
         "##みませんか": 11775,
         "##む": 13673,
         "##め": 10063,
         "##めて": 12274,
         "##も": 8435,
         "##ゃ": 13674,
         "##や": 9164,
         "##やり": 11077,
         "##ゅ": 13675,
         "##ゆ": 13676,
         "##ょ": 13677,
         "##ょう": 11663,
         "##よ": 9427,
         "##よう": 10177,
         "##ような": 10895,
         "##ように": 10847,
         "##よって": 12957,
         "##より": 10190,
         "##ら": 8732,
         "##り": 8506,
         "##りの": 12407,
         "##ります": 11395,
         "##る": 8481,
         "##れ": 9223,
         "##れた": 10679,
         "##れて": 12034,
         "##れている": 11856,
         "##れは": 9170,
         "##れます": 11745,
         "##れる": 10273,
         "##ろ": 10460,
         "##ろう": 12792,
         "##わ": 11940,
         "##を": 8292,
         "##をお": 11236,
         "##をこ": 12335,
         "##ん": 8814,
         "##んて": 12098,
         "##んな": 10386,
         "##゜": 13678,
         "##ゝ": 13679,
         "##ァ": 13680,
         "##ア": 9788,
         "##ィ": 12403,
         "##イ": 9509,
         "##イス": 13203,
         "##イト": 10516,
         "##イフ": 12692,
         "##イン": 10108,
         "##ゥ": 13681,
         "##ウ": 12891,
         "##ェ": 12690,
         "##エ": 13682,
         "##ォ": 13683,
         "##オ": 11238,
         "##カ": 9770,
         "##カー": 10175,
         "##キ": 10781,
         "##キンク": 11505,
         "##ク": 9625,
         "##クok": 13040,
         "##クセス": 13311,
         "##ケ": 13684,
         "##コ": 10155,
         "##コメント": 13301,
         "##サ": 13685,
         "##サイト": 11618,
         "##サー": 12636,
         "##シ": 10472,
         "##シャンルの": 11947,
         "##ション": 10798,
         "##ス": 8551,
         "##スト": 10579,
         "##セ": 13686,
         "##ソ": 13687,
         "##タ": 11011,
         "##ター": 10848,
         "##チ": 10202,
         "##ッ": 13688,
         "##ック": 9244,
         "##ッセーシを": 11231,
         "##ット": 9187,
         "##ッフ": 10023,
         "##ツ": 10419,
         "##テ": 11903,
         "##ティー": 12841,
         "##テル": 12181,
         "##ト": 8807,
         "##ナ": 10714,
         "##ナー": 12005,
         "##ニ": 13689,
         "##ニア": 12650,
         "##ヌ": 13690,
         "##ネ": 13691,
         "##ノ": 13692,
         "##ハ": 12838,
         "##ハー": 10977,
         "##ヒ": 10374,
         "##フ": 9383,
         "##フト": 10868,
         "##ヘ": 13693,
         "##ホ": 12889,
         "##マ": 9760,
         "##ミ": 10688,
         "##ム": 9227,
         "##メ": 10597,
         "##モ": 13694,
         "##ャ": 13695,
         "##ヤ": 13696,
         "##ュ": 13697,
         "##ュー": 12778,
         "##ユ": 13698,
         "##ョ": 13699,
         "##ヨ": 13700,
         "##ラ": 9210,
         "##ラン": 12048,
         "##リ": 9754,
         "##リア": 11989,
         "##リー": 10535,
         "##ル": 8492,
         "##ルハイト": 13304,
         "##ルフ": 12968,
         "##レ": 10416,
         "##レス": 12696,
         "##ロ": 10068,
         "##ロク": 11416,
         "##ワ": 13701,
         "##ヲ": 13702,
         "##ン": 8489,
         "##ンク": 9262,
         "##ンス": 12090,
         "##ンター": 11223,
         "##ント": 10002,
         "##ヶ": 10569,
         "##・": 13703,
         "##ー": 8568,
         "##ーク": 12952,
         "##ーシ": 10568,
         "##ーシてす": 12583,
         "##ーション": 12301,
         "##ース": 10840,
         "##ータ": 12219,
         "##ート": 9006,
         "##ーム": 9975,
         "##ール": 9424,
         "##ールを": 10994,
         "##ーン": 12966,
         "##ヽ": 13704,
         "##ㄅ": 13705,
         "##ㄆ": 13706,
         "##ㄇ": 13707,
         "##ㄉ": 13708,
         "##ㄋ": 13709,
         "##ㄌ": 13710,
         "##ㄍ": 13711,
         "##ㄎ": 13712,
         "##ㄏ": 13713,
         "##ㄒ": 13714,
         "##ㄚ": 13715,
         "##ㄛ": 13716,
         "##ㄞ": 13717,
         "##ㄟ": 13718,
         "##ㄢ": 13719,
         "##ㄤ": 13720,
         "##ㄥ": 13721,
         "##ㄧ": 13722,
         "##ㄨ": 13723,
         "##ㆍ": 13724,
         "##㈦": 13725,
         "##㊣": 13726,
         "##㎡": 9236,
         "##㗎": 13727,
         "##一": 13728,
         "##丁": 13729,
         "##七": 13730,
         "##万": 13731,
         "##丈": 13732,
         "##三": 13733,
         "##上": 13734,
         "##下": 13735,
         "##不": 13736,
         "##与": 13737,
         "##丐": 13738,
         "##丑": 13739,
         "##专": 13740,
         "##且": 13741,
         "##丕": 13742,
         "##世": 13743,
         "##丘": 13744,
         "##丙": 13745,
         "##业": 13746,
         "##丛": 13747,
         "##东": 13748,
         "##丝": 13749,
         "##丞": 13750,
         "##丟": 13751,
         "##両": 13752,
         "##丢": 13753,
         "##两": 13754,
         "##严": 13755,
         "##並": 13756,
         "##丧": 13757,
         "##丨": 13758,
         "##个": 13759,
         "##丫": 13760,
         "##中": 13761,
         "##丰": 13762,
         "##串": 13763,
         "##临": 13764,
         "##丶": 13765,
         "##丸": 13766,
         "##丹": 13767,
         "##为": 13768,
         "##主": 13769,
         "##丼": 13770,
         "##丽": 13771,
         "##举": 13772,
         "##丿": 13773,
         "##乂": 13774,
         "##乃": 13775,
         "##久": 13776,
         "##么": 13777,
         "##义": 13778,
         "##之": 13779,
         "##乌": 13780,
         "##乍": 13781,
         "##乎": 13782,
         "##乏": 13783,
         "##乐": 13784,
         "##乒": 13785,
         "##乓": 13786,
         "##乔": 13787,
         "##乖": 13788,
         "##乗": 13789,
         "##乘": 13790,
         "##乙": 13791,
         "##乜": 13792,
         "##九": 13793,
         "##乞": 13794,
         "##也": 13795,
         "##习": 13796,
         "##乡": 13797,
         "##书": 13798,
         "##乩": 13799,
         "##买": 13800,
         "##乱": 13801,
         "##乳": 13802,
         "##乾": 13803,
         "##亀": 13804,
         "##亂": 13805,
         "##了": 13806,
         "##予": 13807,
         "##争": 13808,
         "##事": 13809,
         "##二": 13810,
         "##于": 13811,
         "##亏": 13812,
         "##云": 13813,
         "##互": 13814,
         "##五": 13815,
         "##井": 13816,
         "##亘": 13817,
         "##亙": 13818,
         "##亚": 13819,
         "##些": 13820,
         "##亜": 13821,
         "##亞": 13822,
         "##亟": 13823,
         "##亡": 13824,
         "##亢": 13825,
         "##交": 13826,
         "##亥": 13827,
         "##亦": 13828,
         "##产": 13829,
         "##亨": 13830,
         "##亩": 13831,
         "##享": 13832,
         "##京": 13833,
         "##亭": 13834,
         "##亮": 13835,
         "##亲": 13836,
         "##亳": 13837,
         "##亵": 13838,
         "##人": 13839,
         "##亿": 13840,
         "##什": 13841,
         "##仁": 13842,
         "##仃": 13843,
         "##仄": 13844,
         "##仅": 13845,
         "##仆": 13846,
         "##仇": 13847,
         "##今": 13848,
         "##介": 13849,
         "##仍": 13850,
         "##从": 13851,
         "##仏": 13852,
         "##仑": 13853,
         "##仓": 13854,
         "##仔": 13855,
         "##仕": 13856,
         "##他": 13857,
         "##仗": 13858,
         "##付": 13859,
         "##仙": 13860,
         "##仝": 13861,
         "##仞": 13862,
         "##仟": 13863,
         "##代": 13864,
         "##令": 13865,
         "##以": 13866,
         "##仨": 13867,
         "##仪": 13868,
         "##们": 13869,
         "##仮": 13870,
         "##仰": 13871,
         "##仲": 13872,
         "##件": 13873,
         "##价": 13874,
         "##任": 13875,
         "##份": 13876,
         "##仿": 13877,
         "##企": 13878,
         "##伉": 13879,
         "##伊": 13880,
         "##伍": 13881,
         "##伎": 13882,
         "##伏": 13883,
         "##伐": 13884,
         "##休": 13885,
         "##伕": 13886,
         "##众": 13887,
         "##优": 13888,
         "##伙": 13889,
         "##会": 13890,
         "##伝": 13891,
         "##伞": 13892,
         "##伟": 13893,
         "##传": 13894,
         "##伢": 13895,
         "##伤": 13896,
         "##伦": 13897,
         "##伪": 13898,
         "##伫": 13899,
         "##伯": 13900,
         "##估": 13901,
         "##伴": 13902,
         "##伶": 13903,
         "##伸": 13904,
         "##伺": 13905,
         "##似": 13906,
         "##伽": 13907,
         "##佃": 13908,
         "##但": 13909,
         "##佇": 13910,
         "##佈": 13911,
         "##位": 13912,
         "##低": 13913,
         "##住": 13914,
         "##佐": 13915,
         "##佑": 13916,
         "##体": 13917,
         "##佔": 13918,
         "##何": 13919,
         "##佗": 13920,
         "##佘": 13921,
         "##余": 13922,
         "##佚": 13923,
         "##佛": 13924,
         "##作": 13925,
         "##佝": 13926,
         "##佞": 13927,
         "##佟": 13928,
         "##你": 13929,
         "##佢": 13930,
         "##佣": 13931,
         "##佤": 13932,
         "##佥": 13933,
         "##佩": 13934,
         "##佬": 13935,
         "##佯": 13936,
         "##佰": 13937,
         "##佳": 13938,
         "##併": 13939,
         "##佶": 13940,
         "##佻": 13941,
         "##佼": 13942,
         "##使": 13943,
         "##侃": 13944,
         "##侄": 13945,
         "##來": 13946,
         "##侈": 13947,
         "##例": 13948,
         "##侍": 13949,
         "##侏": 13950,
         "##侑": 13951,
         "##侖": 13952,
         "##侗": 13953,
         "##供": 13954,
         "##依": 13955,
         "##侠": 13956,
         "##価": 13957,
         "##侣": 13958,
         "##侥": 13959,
         "##侦": 13960,
         "##侧": 13961,
         "##侨": 13962,
         "##侬": 13963,
         "##侮": 13964,
         "##侯": 13965,
         "##侵": 13966,
         "##侶": 13967,
         "##侷": 13968,
         "##便": 13969,
         "##係": 13970,
         "##促": 13971,
         "##俄": 13972,
         "##俊": 13973,
         "##俎": 13974,
         "##俏": 13975,
         "##俐": 13976,
         "##俑": 13977,
         "##俗": 13978,
         "##俘": 13979,
         "##俚": 13980,
         "##保": 13981,
         "##俞": 13982,
         "##俟": 13983,
         "##俠": 13984,
         "##信": 13985,
         "##俨": 13986,
         "##俩": 13987,
         "##俪": 13988,
         "##俬": 13989,
         "##俭": 13990,
         "##修": 13991,
         "##俯": 13992,
         "##俱": 13993,
         "##俳": 13994,
         "##俸": 13995,
         "##俺": 13996,
         "##俾": 13997,
         "##倆": 13998,
         "##倉": 13999,
         "##個": 14000,
         "##倌": 14001,
         "##倍": 14002,
         "##倏": 14003,
         "##們": 14004,
         "##倒": 14005,
         "##倔": 14006,
         "##倖": 14007,
         "##倘": 14008,
         "##候": 14009,
         "##倚": 14010,
         "##倜": 14011,
         "##借": 14012,
         "##倡": 14013,
         "##値": 14014,
         "##倦": 14015,
         "##倩": 14016,
         "##倪": 14017,
         "##倫": 14018,
         "##倬": 14019,
         "##倭": 14020,
         "##倶": 14021,
         "##债": 14022,
         "##值": 14023,
         "##倾": 14024,
         "##偃": 14025,
         "##假": 14026,
         "##偈": 14027,
         "##偉": 14028,
         "##偌": 14029,
         "##偎": 14030,
         "##偏": 14031,
         "##偕": 14032,
         "##做": 14033,
         "##停": 14034,
         "##健": 14035,
         "##側": 14036,
         "##偵": 14037,
         "##偶": 14038,
         "##偷": 14039,
         "##偻": 14040,
         "##偽": 14041,
         "##偿": 14042,
         "##傀": 14043,
         "##傅": 14044,
         "##傍": 14045,
         "##傑": 14046,
         "##傘": 14047,
         "##備": 14048,
         "##傚": 14049,
         "##傢": 14050,
         "##傣": 14051,
         "##傥": 14052,
         "##储": 14053,
         "##傩": 14054,
         "##催": 14055,
         "##傭": 14056,
         "##傲": 14057,
         "##傳": 14058,
         "##債": 14059,
         "##傷": 14060,
         "##傻": 14061,
         "##傾": 14062,
         "##僅": 14063,
         "##働": 14064,
         "##像": 14065,
         "##僑": 14066,
         "##僕": 14067,
         "##僖": 14068,
         "##僚": 14069,
         "##僥": 14070,
         "##僧": 14071,
         "##僭": 14072,
         "##僮": 14073,
         "##僱": 14074,
         "##僵": 14075,
         "##價": 14076,
         "##僻": 14077,
         "##儀": 14078,
         "##儂": 14079,
         "##億": 14080,
         "##儆": 14081,
         "##儉": 14082,
         "##儋": 14083,
         "##儒": 14084,
         "##儕": 14085,
         "##儘": 14086,
         "##償": 14087,
         "##儡": 14088,
         "##優": 14089,
         "##儲": 14090,
         "##儷": 14091,
         "##儼": 14092,
         "##儿": 14093,
         "##兀": 14094,
         "##允": 14095,
         "##元": 14096,
         "##兄": 14097,
         "##充": 14098,
         "##兆": 14099,
         "##兇": 14100,
         "##先": 14101,
         "##光": 14102,
         "##克": 14103,
         "##兌": 14104,
         "##免": 14105,
         "##児": 14106,
         "##兑": 14107,
         "##兒": 14108,
         "##兔": 14109,
         "##兖": 14110,
         "##党": 14111,
         "##兜": 14112,
         "##兢": 14113,
         "##入": 14114,
         "##內": 14115,
         "##全": 14116,
         "##兩": 14117,
         "##八": 14118,
         "##公": 14119,
         "##六": 14120,
         "##兮": 14121,
         "##兰": 14122,
         "##共": 14123,
         "##兲": 14124,
         "##关": 14125,
         "##兴": 14126,
         "##兵": 14127,
         "##其": 14128,
         "##具": 14129,
         "##典": 14130,
         "##兹": 14131,
         "##养": 14132,
         "##兼": 14133,
         "##兽": 14134,
         "##冀": 14135,
         "##内": 14136,
         "##円": 14137,
         "##冇": 14138,
         "##冈": 14139,
         "##冉": 14140,
         "##冊": 14141,
         "##册": 14142,
         "##再": 14143,
         "##冏": 14144,
         "##冒": 14145,
         "##冕": 14146,
         "##冗": 14147,
         "##写": 14148,
         "##军": 14149,
         "##农": 14150,
         "##冠": 14151,
         "##冢": 14152,
         "##冤": 14153,
         "##冥": 14154,
         "##冨": 14155,
         "##冪": 14156,
         "##冬": 14157,
         "##冯": 14158,
         "##冰": 14159,
         "##冲": 14160,
         "##决": 14161,
         "##况": 14162,
         "##冶": 14163,
         "##冷": 14164,
         "##冻": 14165,
         "##冼": 14166,
         "##冽": 14167,
         "##冾": 14168,
         "##净": 14169,
         "##凄": 14170,
         "##准": 14171,
         "##凇": 14172,
         "##凈": 14173,
         "##凉": 14174,
         "##凋": 14175,
         "##凌": 14176,
         "##凍": 14177,
         "##减": 14178,
         "##凑": 14179,
         "##凛": 14180,
         "##凜": 14181,
         "##凝": 14182,
         "##几": 14183,
         "##凡": 14184,
         "##凤": 14185,
         "##処": 14186,
         "##凪": 14187,
         "##凭": 14188,
         "##凯": 14189,
         "##凰": 14190,
         "##凱": 14191,
         "##凳": 14192,
         "##凶": 14193,
         "##凸": 14194,
         "##凹": 14195,
         "##出": 14196,
         "##击": 14197,
         "##函": 14198,
         "##凿": 14199,
         "##刀": 14200,
         "##刁": 14201,
         "##刃": 14202,
         "##分": 14203,
         "##切": 14204,
         "##刈": 14205,
         "##刊": 14206,
         "##刍": 14207,
         "##刎": 14208,
         "##刑": 14209,
         "##划": 14210,
         "##列": 14211,
         "##刘": 14212,
         "##则": 14213,
         "##刚": 14214,
         "##创": 14215,
         "##初": 14216,
         "##删": 14217,
         "##判": 14218,
         "##別": 14219,
         "##刨": 14220,
         "##利": 14221,
         "##刪": 14222,
         "##别": 14223,
         "##刮": 14224,
         "##到": 14225,
         "##制": 14226,
         "##刷": 14227,
         "##券": 14228,
         "##刹": 14229,
         "##刺": 14230,
         "##刻": 14231,
         "##刽": 14232,
         "##剁": 14233,
         "##剂": 14234,
         "##剃": 14235,
         "##則": 14236,
         "##剉": 14237,
         "##削": 14238,
         "##剋": 14239,
         "##剌": 14240,
         "##前": 14241,
         "##剎": 14242,
         "##剐": 14243,
         "##剑": 14244,
         "##剔": 14245,
         "##剖": 14246,
         "##剛": 14247,
         "##剜": 14248,
         "##剝": 14249,
         "##剣": 14250,
         "##剤": 14251,
         "##剥": 14252,
         "##剧": 14253,
         "##剩": 14254,
         "##剪": 14255,
         "##副": 14256,
         "##割": 14257,
         "##創": 14258,
         "##剷": 14259,
         "##剽": 14260,
         "##剿": 14261,
         "##劃": 14262,
         "##劇": 14263,
         "##劈": 14264,
         "##劉": 14265,
         "##劊": 14266,
         "##劍": 14267,
         "##劏": 14268,
         "##劑": 14269,
         "##力": 14270,
         "##劝": 14271,
         "##办": 14272,
         "##功": 14273,
         "##加": 14274,
         "##务": 14275,
         "##劣": 14276,
         "##动": 14277,
         "##助": 14278,
         "##努": 14279,
         "##劫": 14280,
         "##劭": 14281,
         "##励": 14282,
         "##劲": 14283,
         "##劳": 14284,
         "##労": 14285,
         "##劵": 14286,
         "##効": 14287,
         "##劾": 14288,
         "##势": 14289,
         "##勁": 14290,
         "##勃": 14291,
         "##勇": 14292,
         "##勉": 14293,
         "##勋": 14294,
         "##勐": 14295,
         "##勒": 14296,
         "##動": 14297,
         "##勖": 14298,
         "##勘": 14299,
         "##務": 14300,
         "##勛": 14301,
         "##勝": 14302,
         "##勞": 14303,
         "##募": 14304,
         "##勢": 14305,
         "##勤": 14306,
         "##勧": 14307,
         "##勳": 14308,
         "##勵": 14309,
         "##勸": 14310,
         "##勺": 14311,
         "##勻": 14312,
         "##勾": 14313,
         "##勿": 14314,
         "##匀": 14315,
         "##包": 14316,
         "##匆": 14317,
         "##匈": 14318,
         "##匍": 14319,
         "##匐": 14320,
         "##匕": 14321,
         "##化": 14322,
         "##北": 14323,
         "##匙": 14324,
         "##匝": 14325,
         "##匠": 14326,
         "##匡": 14327,
         "##匣": 14328,
         "##匪": 14329,
         "##匮": 14330,
         "##匯": 14331,
         "##匱": 14332,
         "##匹": 14333,
         "##区": 14334,
         "##医": 14335,
         "##匾": 14336,
         "##匿": 14337,
         "##區": 14338,
         "##十": 14339,
         "##千": 14340,
         "##卅": 14341,
         "##升": 14342,
         "##午": 14343,
         "##卉": 14344,
         "##半": 14345,
         "##卍": 14346,
         "##华": 14347,
         "##协": 14348,
         "##卑": 14349,
         "##卒": 14350,
         "##卓": 14351,
         "##協": 14352,
         "##单": 14353,
         "##卖": 14354,
         "##南": 14355,
         "##単": 14356,
         "##博": 14357,
         "##卜": 14358,
         "##卞": 14359,
         "##卟": 14360,
         "##占": 14361,
         "##卡": 14362,
         "##卢": 14363,
         "##卤": 14364,
         "##卦": 14365,
         "##卧": 14366,
         "##卫": 14367,
         "##卮": 14368,
         "##卯": 14369,
         "##印": 14370,
         "##危": 14371,
         "##即": 14372,
         "##却": 14373,
         "##卵": 14374,
         "##卷": 14375,
         "##卸": 14376,
         "##卻": 14377,
         "##卿": 14378,
         "##厂": 14379,
         "##厄": 14380,
         "##厅": 14381,
         "##历": 14382,
         "##厉": 14383,
         "##压": 14384,
         "##厌": 14385,
         "##厕": 14386,
         "##厘": 14387,
         "##厚": 14388,
         "##厝": 14389,
         "##原": 14390,
         "##厢": 14391,
         "##厥": 14392,
         "##厦": 14393,
         "##厨": 14394,
         "##厩": 14395,
         "##厭": 14396,
         "##厮": 14397,
         "##厲": 14398,
         "##厳": 14399,
         "##去": 14400,
         "##县": 14401,
         "##叁": 14402,
         "##参": 14403,
         "##參": 14404,
         "##又": 14405,
         "##叉": 14406,
         "##及": 14407,
         "##友": 14408,
         "##双": 14409,
         "##反": 14410,
         "##収": 14411,
         "##发": 14412,
         "##叔": 14413,
         "##取": 14414,
         "##受": 14415,
         "##变": 14416,
         "##叙": 14417,
         "##叛": 14418,
         "##叟": 14419,
         "##叠": 14420,
         "##叡": 14421,
         "##叢": 14422,
         "##口": 14423,
         "##古": 14424,
         "##句": 14425,
         "##另": 14426,
         "##叨": 14427,
         "##叩": 14428,
         "##只": 14429,
         "##叫": 14430,
         "##召": 14431,
         "##叭": 14432,
         "##叮": 14433,
         "##可": 14434,
         "##台": 14435,
         "##叱": 14436,
         "##史": 14437,
         "##右": 14438,
         "##叵": 14439,
         "##叶": 14440,
         "##号": 14441,
         "##司": 14442,
         "##叹": 14443,
         "##叻": 14444,
         "##叼": 14445,
         "##叽": 14446,
         "##吁": 14447,
         "##吃": 14448,
         "##各": 14449,
         "##吆": 14450,
         "##合": 14451,
         "##吉": 14452,
         "##吊": 14453,
         "##吋": 14454,
         "##同": 14455,
         "##名": 14456,
         "##后": 14457,
         "##吏": 14458,
         "##吐": 14459,
         "##向": 14460,
         "##吒": 14461,
         "##吓": 14462,
         "##吕": 14463,
         "##吖": 14464,
         "##吗": 14465,
         "##君": 14466,
         "##吝": 14467,
         "##吞": 14468,
         "##吟": 14469,
         "##吠": 14470,
         "##吡": 14471,
         "##否": 14472,
         "##吧": 14473,
         "##吨": 14474,
         "##吩": 14475,
         "##含": 14476,
         "##听": 14477,
         "##吭": 14478,
         "##吮": 14479,
         "##启": 14480,
         "##吱": 14481,
         "##吳": 14482,
         "##吴": 14483,
         "##吵": 14484,
         "##吶": 14485,
         "##吸": 14486,
         "##吹": 14487,
         "##吻": 14488,
         "##吼": 14489,
         "##吽": 14490,
         "##吾": 14491,
         "##呀": 14492,
         "##呂": 14493,
         "##呃": 14494,
         "##呆": 14495,
         "##呈": 14496,
         "##告": 14497,
         "##呋": 14498,
         "##呎": 14499,
         "##呐": 14500,
         "##呓": 14501,
         "##呕": 14502,
         "##呗": 14503,
         "##员": 14504,
         "##呛": 14505,
         "##呜": 14506,
         "##呢": 14507,
         "##呤": 14508,
         "##呦": 14509,
         "##周": 14510,
         "##呱": 14511,
         "##呲": 14512,
         "##味": 14513,
         "##呵": 14514,
         "##呷": 14515,
         "##呸": 14516,
         "##呻": 14517,
         "##呼": 14518,
         "##命": 14519,
         "##咀": 14520,
         "##咁": 14521,
         "##咂": 14522,
         "##咄": 14523,
         "##咆": 14524,
         "##咋": 14525,
         "##和": 14526,
         "##咎": 14527,
         "##咏": 14528,
         "##咐": 14529,
         "##咒": 14530,
         "##咔": 14531,
         "##咕": 14532,
         "##咖": 14533,
         "##咗": 14534,
         "##咘": 14535,
         "##咙": 14536,
         "##咚": 14537,
         "##咛": 14538,
         "##咣": 14539,
         "##咤": 14540,
         "##咦": 14541,
         "##咧": 14542,
         "##咨": 14543,
         "##咩": 14544,
         "##咪": 14545,
         "##咫": 14546,
         "##咬": 14547,
         "##咭": 14548,
         "##咯": 14549,
         "##咱": 14550,
         "##咲": 14551,
         "##咳": 14552,
         "##咸": 14553,
         "##咻": 14554,
         "##咽": 14555,
         "##咿": 14556,
         "##哀": 14557,
         "##品": 14558,
         "##哂": 14559,
         "##哄": 14560,
         "##哆": 14561,
         "##哇": 14562,
         "##哈": 14563,
         "##哉": 14564,
         "##哋": 14565,
         "##哌": 14566,
         "##响": 14567,
         "##哎": 14568,
         "##哏": 14569,
         "##哐": 14570,
         "##哑": 14571,
         "##哒": 14572,
         "##哔": 14573,
         "##哗": 14574,
         "##哟": 14575,
         "##員": 14576,
         "##哥": 14577,
         "##哦": 14578,
         "##哧": 14579,
         "##哨": 14580,
         "##哩": 14581,
         "##哪": 14582,
         "##哭": 14583,
         "##哮": 14584,
         "##哲": 14585,
         "##哺": 14586,
         "##哼": 14587,
         "##哽": 14588,
         "##唁": 14589,
         "##唄": 14590,
         "##唆": 14591,
         "##唇": 14592,
         "##唉": 14593,
         "##唏": 14594,
         "##唐": 14595,
         "##唑": 14596,
         "##唔": 14597,
         "##唠": 14598,
         "##唤": 14599,
         "##唧": 14600,
         "##唬": 14601,
         "##售": 14602,
         "##唯": 14603,
         "##唰": 14604,
         "##唱": 14605,
         "##唳": 14606,
         "##唷": 14607,
         "##唸": 14608,
         "##唾": 14609,
         "##啃": 14610,
         "##啄": 14611,
         "##商": 14612,
         "##啉": 14613,
         "##啊": 14614,
         "##問": 14615,
         "##啓": 14616,
         "##啕": 14617,
         "##啖": 14618,
         "##啜": 14619,
         "##啞": 14620,
         "##啟": 14621,
         "##啡": 14622,
         "##啤": 14623,
         "##啥": 14624,
         "##啦": 14625,
         "##啧": 14626,
         "##啪": 14627,
         "##啫": 14628,
         "##啬": 14629,
         "##啮": 14630,
         "##啰": 14631,
         "##啱": 14632,
         "##啲": 14633,
         "##啵": 14634,
         "##啶": 14635,
         "##啷": 14636,
         "##啸": 14637,
         "##啻": 14638,
         "##啼": 14639,
         "##啾": 14640,
         "##喀": 14641,
         "##喂": 14642,
         "##喃": 14643,
         "##善": 14644,
         "##喆": 14645,
         "##喇": 14646,
         "##喉": 14647,
         "##喊": 14648,
         "##喋": 14649,
         "##喎": 14650,
         "##喏": 14651,
         "##喔": 14652,
         "##喘": 14653,
         "##喙": 14654,
         "##喚": 14655,
         "##喜": 14656,
         "##喝": 14657,
         "##喟": 14658,
         "##喧": 14659,
         "##喪": 14660,
         "##喫": 14661,
         "##喬": 14662,
         "##單": 14663,
         "##喰": 14664,
         "##喱": 14665,
         "##喲": 14666,
         "##喳": 14667,
         "##喵": 14668,
         "##営": 14669,
         "##喷": 14670,
         "##喹": 14671,
         "##喺": 14672,
         "##喻": 14673,
         "##喽": 14674,
         "##嗅": 14675,
         "##嗆": 14676,
         "##嗇": 14677,
         "##嗎": 14678,
         "##嗑": 14679,
         "##嗒": 14680,
         "##嗓": 14681,
         "##嗔": 14682,
         "##嗖": 14683,
         "##嗚": 14684,
         "##嗜": 14685,
         "##嗝": 14686,
         "##嗟": 14687,
         "##嗡": 14688,
         "##嗣": 14689,
         "##嗤": 14690,
         "##嗦": 14691,
         "##嗨": 14692,
         "##嗪": 14693,
         "##嗬": 14694,
         "##嗯": 14695,
         "##嗰": 14696,
         "##嗲": 14697,
         "##嗳": 14698,
         "##嗶": 14699,
         "##嗷": 14700,
         "##嗽": 14701,
         "##嘀": 14702,
         "##嘅": 14703,
         "##嘆": 14704,
         "##嘈": 14705,
         "##嘉": 14706,
         "##嘌": 14707,
         "##嘍": 14708,
         "##嘎": 14709,
         "##嘔": 14710,
         "##嘖": 14711,
         "##嘗": 14712,
         "##嘘": 14713,
         "##嘚": 14714,
         "##嘛": 14715,
         "##嘜": 14716,
         "##嘞": 14717,
         "##嘟": 14718,
         "##嘢": 14719,
         "##嘣": 14720,
         "##嘤": 14721,
         "##嘧": 14722,
         "##嘩": 14723,
         "##嘭": 14724,
         "##嘮": 14725,
         "##嘯": 14726,
         "##嘰": 14727,
         "##嘱": 14728,
         "##嘲": 14729,
         "##嘴": 14730,
         "##嘶": 14731,
         "##嘸": 14732,
         "##嘹": 14733,
         "##嘻": 14734,
         "##嘿": 14735,
         "##噁": 14736,
         "##噌": 14737,
         "##噎": 14738,
         "##噓": 14739,
         "##噔": 14740,
         "##噗": 14741,
         "##噙": 14742,
         "##噜": 14743,
         "##噠": 14744,
         "##噢": 14745,
         "##噤": 14746,
         "##器": 14747,
         "##噩": 14748,
         "##噪": 14749,
         "##噬": 14750,
         "##噱": 14751,
         "##噴": 14752,
         "##噶": 14753,
         "##噸": 14754,
         "##噹": 14755,
         "##噻": 14756,
         "##噼": 14757,
         "##嚀": 14758,
         "##嚇": 14759,
         "##嚎": 14760,
         "##嚏": 14761,
         "##嚐": 14762,
         "##嚓": 14763,
         "##嚕": 14764,
         "##嚟": 14765,
         "##嚣": 14766,
         "##嚥": 14767,
         "##嚨": 14768,
         "##嚮": 14769,
         "##嚴": 14770,
         "##嚷": 14771,
         "##嚼": 14772,
         "##囂": 14773,
         "##囉": 14774,
         "##囊": 14775,
         "##囍": 14776,
         "##囑": 14777,
         "##囔": 14778,
         "##囗": 14779,
         "##囚": 14780,
         "##四": 14781,
         "##囝": 14782,
         "##回": 14783,
         "##囟": 14784,
         "##因": 14785,
         "##囡": 14786,
         "##团": 14787,
         "##団": 14788,
         "##囤": 14789,
         "##囧": 14790,
         "##囪": 14791,
         "##囫": 14792,
         "##园": 14793,
         "##困": 14794,
         "##囱": 14795,
         "##囲": 14796,
         "##図": 14797,
         "##围": 14798,
         "##囹": 14799,
         "##固": 14800,
         "##国": 14801,
         "##图": 14802,
         "##囿": 14803,
         "##圃": 14804,
         "##圄": 14805,
         "##圆": 14806,
         "##圈": 14807,
         "##國": 14808,
         "##圍": 14809,
         "##圏": 14810,
         "##園": 14811,
         "##圓": 14812,
         "##圖": 14813,
         "##團": 14814,
         "##圜": 14815,
         "##土": 14816,
         "##圣": 14817,
         "##圧": 14818,
         "##在": 14819,
         "##圩": 14820,
         "##圭": 14821,
         "##地": 14822,
         "##圳": 14823,
         "##场": 14824,
         "##圻": 14825,
         "##圾": 14826,
         "##址": 14827,
         "##坂": 14828,
         "##均": 14829,
         "##坊": 14830,
         "##坍": 14831,
         "##坎": 14832,
         "##坏": 14833,
         "##坐": 14834,
         "##坑": 14835,
         "##块": 14836,
         "##坚": 14837,
         "##坛": 14838,
         "##坝": 14839,
         "##坞": 14840,
         "##坟": 14841,
         "##坠": 14842,
         "##坡": 14843,
         "##坤": 14844,
         "##坦": 14845,
         "##坨": 14846,
         "##坪": 14847,
         "##坯": 14848,
         "##坳": 14849,
         "##坵": 14850,
         "##坷": 14851,
         "##垂": 14852,
         "##垃": 14853,
         "##垄": 14854,
         "##型": 14855,
         "##垒": 14856,
         "##垚": 14857,
         "##垛": 14858,
         "##垠": 14859,
         "##垢": 14860,
         "##垣": 14861,
         "##垦": 14862,
         "##垩": 14863,
         "##垫": 14864,
         "##垭": 14865,
         "##垮": 14866,
         "##垵": 14867,
         "##埂": 14868,
         "##埃": 14869,
         "##埋": 14870,
         "##城": 14871,
         "##埔": 14872,
         "##埕": 14873,
         "##埗": 14874,
         "##域": 14875,
         "##埠": 14876,
         "##埤": 14877,
         "##埵": 14878,
         "##執": 14879,
         "##埸": 14880,
         "##培": 14881,
         "##基": 14882,
         "##埼": 14883,
         "##堀": 14884,
         "##堂": 14885,
         "##堃": 14886,
         "##堅": 14887,
         "##堆": 14888,
         "##堇": 14889,
         "##堑": 14890,
         "##堕": 14891,
         "##堙": 14892,
         "##堡": 14893,
         "##堤": 14894,
         "##堪": 14895,
         "##堯": 14896,
         "##堰": 14897,
         "##報": 14898,
         "##場": 14899,
         "##堵": 14900,
         "##堺": 14901,
         "##堿": 14902,
         "##塊": 14903,
         "##塌": 14904,
         "##塑": 14905,
         "##塔": 14906,
         "##塗": 14907,
         "##塘": 14908,
         "##塚": 14909,
         "##塞": 14910,
         "##塢": 14911,
         "##塩": 14912,
         "##填": 14913,
         "##塬": 14914,
         "##塭": 14915,
         "##塵": 14916,
         "##塾": 14917,
         "##墀": 14918,
         "##境": 14919,
         "##墅": 14920,
         "##墉": 14921,
         "##墊": 14922,
         "##墒": 14923,
         "##墓": 14924,
         "##増": 14925,
         "##墘": 14926,
         "##墙": 14927,
         "##墜": 14928,
         "##增": 14929,
         "##墟": 14930,
         "##墨": 14931,
         "##墩": 14932,
         "##墮": 14933,
         "##墳": 14934,
         "##墻": 14935,
         "##墾": 14936,
         "##壁": 14937,
         "##壅": 14938,
         "##壆": 14939,
         "##壇": 14940,
         "##壊": 14941,
         "##壑": 14942,
         "##壓": 14943,
         "##壕": 14944,
         "##壘": 14945,
         "##壞": 14946,
         "##壟": 14947,
         "##壢": 14948,
         "##壤": 14949,
         "##壩": 14950,
         "##士": 14951,
         "##壬": 14952,
         "##壮": 14953,
         "##壯": 14954,
         "##声": 14955,
         "##売": 14956,
         "##壳": 14957,
         "##壶": 14958,
         "##壹": 14959,
         "##壺": 14960,
         "##壽": 14961,
         "##处": 14962,
         "##备": 14963,
         "##変": 14964,
         "##复": 14965,
         "##夏": 14966,
         "##夔": 14967,
         "##夕": 14968,
         "##外": 14969,
         "##夙": 14970,
         "##多": 14971,
         "##夜": 14972,
         "##够": 14973,
         "##夠": 14974,
         "##夢": 14975,
         "##夥": 14976,
         "##大": 14977,
         "##天": 14978,
         "##太": 14979,
         "##夫": 14980,
         "##夭": 14981,
         "##央": 14982,
         "##夯": 14983,
         "##失": 14984,
         "##头": 14985,
         "##夷": 14986,
         "##夸": 14987,
         "##夹": 14988,
         "##夺": 14989,
         "##夾": 14990,
         "##奂": 14991,
         "##奄": 14992,
         "##奇": 14993,
         "##奈": 14994,
         "##奉": 14995,
         "##奋": 14996,
         "##奎": 14997,
         "##奏": 14998,
         "##奐": 14999,
         "##契": 15000,
         "##奔": 15001,
         "##奕": 15002,
         "##奖": 15003,
         "##套": 15004,
         "##奘": 15005,
         "##奚": 15006,
         "##奠": 15007,
         "##奢": 15008,
         "##奥": 15009,
         "##奧": 15010,
         "##奪": 15011,
         "##奬": 15012,
         "##奮": 15013,
         "##女": 15014,
         "##奴": 15015,
         "##奶": 15016,
         "##奸": 15017,
         "##她": 15018,
         "##好": 15019,
         "##如": 15020,
         "##妃": 15021,
         "##妄": 15022,
         "##妆": 15023,
         "##妇": 15024,
         "##妈": 15025,
         "##妊": 15026,
         "##妍": 15027,
         "##妒": 15028,
         "##妓": 15029,
         "##妖": 15030,
         "##妘": 15031,
         "##妙": 15032,
         "##妝": 15033,
         "##妞": 15034,
         "##妣": 15035,
         "##妤": 15036,
         "##妥": 15037,
         "##妨": 15038,
         "##妩": 15039,
         "##妪": 15040,
         "##妮": 15041,
         "##妲": 15042,
         "##妳": 15043,
         "##妹": 15044,
         "##妻": 15045,
         "##妾": 15046,
         "##姆": 15047,
         "##姉": 15048,
         "##姊": 15049,
         "##始": 15050,
         "##姍": 15051,
         "##姐": 15052,
         "##姑": 15053,
         "##姒": 15054,
         "##姓": 15055,
         "##委": 15056,
         "##姗": 15057,
         "##姚": 15058,
         "##姜": 15059,
         "##姝": 15060,
         "##姣": 15061,
         "##姥": 15062,
         "##姦": 15063,
         "##姨": 15064,
         "##姪": 15065,
         "##姫": 15066,
         "##姬": 15067,
         "##姹": 15068,
         "##姻": 15069,
         "##姿": 15070,
         "##威": 15071,
         "##娃": 15072,
         "##娄": 15073,
         "##娅": 15074,
         "##娆": 15075,
         "##娇": 15076,
         "##娉": 15077,
         "##娑": 15078,
         "##娓": 15079,
         "##娘": 15080,
         "##娛": 15081,
         "##娜": 15082,
         "##娟": 15083,
         "##娠": 15084,
         "##娣": 15085,
         "##娥": 15086,
         "##娩": 15087,
         "##娱": 15088,
         "##娲": 15089,
         "##娴": 15090,
         "##娶": 15091,
         "##娼": 15092,
         "##婀": 15093,
         "##婁": 15094,
         "##婆": 15095,
         "##婉": 15096,
         "##婊": 15097,
         "##婕": 15098,
         "##婚": 15099,
         "##婢": 15100,
         "##婦": 15101,
         "##婧": 15102,
         "##婪": 15103,
         "##婭": 15104,
         "##婴": 15105,
         "##婵": 15106,
         "##婶": 15107,
         "##婷": 15108,
         "##婺": 15109,
         "##婿": 15110,
         "##媒": 15111,
         "##媚": 15112,
         "##媛": 15113,
         "##媞": 15114,
         "##媧": 15115,
         "##媲": 15116,
         "##媳": 15117,
         "##媽": 15118,
         "##媾": 15119,
         "##嫁": 15120,
         "##嫂": 15121,
         "##嫉": 15122,
         "##嫌": 15123,
         "##嫑": 15124,
         "##嫔": 15125,
         "##嫖": 15126,
         "##嫘": 15127,
         "##嫚": 15128,
         "##嫡": 15129,
         "##嫣": 15130,
         "##嫦": 15131,
         "##嫩": 15132,
         "##嫲": 15133,
         "##嫵": 15134,
         "##嫻": 15135,
         "##嬅": 15136,
         "##嬉": 15137,
         "##嬌": 15138,
         "##嬗": 15139,
         "##嬛": 15140,
         "##嬢": 15141,
         "##嬤": 15142,
         "##嬪": 15143,
         "##嬰": 15144,
         "##嬴": 15145,
         "##嬷": 15146,
         "##嬸": 15147,
         "##嬿": 15148,
         "##孀": 15149,
         "##孃": 15150,
         "##子": 15151,
         "##孑": 15152,
         "##孔": 15153,
         "##孕": 15154,
         "##孖": 15155,
         "##字": 15156,
         "##存": 15157,
         "##孙": 15158,
         "##孚": 15159,
         "##孛": 15160,
         "##孜": 15161,
         "##孝": 15162,
         "##孟": 15163,
         "##孢": 15164,
         "##季": 15165,
         "##孤": 15166,
         "##学": 15167,
         "##孩": 15168,
         "##孪": 15169,
         "##孫": 15170,
         "##孬": 15171,
         "##孰": 15172,
         "##孱": 15173,
         "##孳": 15174,
         "##孵": 15175,
         "##學": 15176,
         "##孺": 15177,
         "##孽": 15178,
         "##孿": 15179,
         "##宁": 15180,
         "##它": 15181,
         "##宅": 15182,
         "##宇": 15183,
         "##守": 15184,
         "##安": 15185,
         "##宋": 15186,
         "##完": 15187,
         "##宏": 15188,
         "##宓": 15189,
         "##宕": 15190,
         "##宗": 15191,
         "##官": 15192,
         "##宙": 15193,
         "##定": 15194,
         "##宛": 15195,
         "##宜": 15196,
         "##宝": 15197,
         "##实": 15198,
         "##実": 15199,
         "##宠": 15200,
         "##审": 15201,
         "##客": 15202,
         "##宣": 15203,
         "##室": 15204,
         "##宥": 15205,
         "##宦": 15206,
         "##宪": 15207,
         "##宫": 15208,
         "##宮": 15209,
         "##宰": 15210,
         "##害": 15211,
         "##宴": 15212,
         "##宵": 15213,
         "##家": 15214,
         "##宸": 15215,
         "##容": 15216,
         "##宽": 15217,
         "##宾": 15218,
         "##宿": 15219,
         "##寂": 15220,
         "##寄": 15221,
         "##寅": 15222,
         "##密": 15223,
         "##寇": 15224,
         "##富": 15225,
         "##寐": 15226,
         "##寒": 15227,
         "##寓": 15228,
         "##寛": 15229,
         "##寝": 15230,
         "##寞": 15231,
         "##察": 15232,
         "##寡": 15233,
         "##寢": 15234,
         "##寥": 15235,
         "##實": 15236,
         "##寧": 15237,
         "##寨": 15238,
         "##審": 15239,
         "##寫": 15240,
         "##寬": 15241,
         "##寮": 15242,
         "##寰": 15243,
         "##寵": 15244,
         "##寶": 15245,
         "##寸": 15246,
         "##对": 15247,
         "##寺": 15248,
         "##寻": 15249,
         "##导": 15250,
         "##対": 15251,
         "##寿": 15252,
         "##封": 15253,
         "##専": 15254,
         "##射": 15255,
         "##将": 15256,
         "##將": 15257,
         "##專": 15258,
         "##尉": 15259,
         "##尊": 15260,
         "##尋": 15261,
         "##對": 15262,
         "##導": 15263,
         "##小": 15264,
         "##少": 15265,
         "##尔": 15266,
         "##尕": 15267,
         "##尖": 15268,
         "##尘": 15269,
         "##尚": 15270,
         "##尝": 15271,
         "##尤": 15272,
         "##尧": 15273,
         "##尬": 15274,
         "##就": 15275,
         "##尴": 15276,
         "##尷": 15277,
         "##尸": 15278,
         "##尹": 15279,
         "##尺": 15280,
         "##尻": 15281,
         "##尼": 15282,
         "##尽": 15283,
         "##尾": 15284,
         "##尿": 15285,
         "##局": 15286,
         "##屁": 15287,
         "##层": 15288,
         "##屄": 15289,
         "##居": 15290,
         "##屆": 15291,
         "##屈": 15292,
         "##屉": 15293,
         "##届": 15294,
         "##屋": 15295,
         "##屌": 15296,
         "##屍": 15297,
         "##屎": 15298,
         "##屏": 15299,
         "##屐": 15300,
         "##屑": 15301,
         "##展": 15302,
         "##屜": 15303,
         "##属": 15304,
         "##屠": 15305,
         "##屡": 15306,
         "##屢": 15307,
         "##層": 15308,
         "##履": 15309,
         "##屬": 15310,
         "##屯": 15311,
         "##山": 15312,
         "##屹": 15313,
         "##屿": 15314,
         "##岀": 15315,
         "##岁": 15316,
         "##岂": 15317,
         "##岌": 15318,
         "##岐": 15319,
         "##岑": 15320,
         "##岔": 15321,
         "##岖": 15322,
         "##岗": 15323,
         "##岘": 15324,
         "##岙": 15325,
         "##岚": 15326,
         "##岛": 15327,
         "##岡": 15328,
         "##岩": 15329,
         "##岫": 15330,
         "##岬": 15331,
         "##岭": 15332,
         "##岱": 15333,
         "##岳": 15334,
         "##岷": 15335,
         "##岸": 15336,
         "##峇": 15337,
         "##峋": 15338,
         "##峒": 15339,
         "##峙": 15340,
         "##峡": 15341,
         "##峤": 15342,
         "##峥": 15343,
         "##峦": 15344,
         "##峨": 15345,
         "##峪": 15346,
         "##峭": 15347,
         "##峯": 15348,
         "##峰": 15349,
         "##峴": 15350,
         "##島": 15351,
         "##峻": 15352,
         "##峽": 15353,
         "##崁": 15354,
         "##崂": 15355,
         "##崆": 15356,
         "##崇": 15357,
         "##崎": 15358,
         "##崑": 15359,
         "##崔": 15360,
         "##崖": 15361,
         "##崗": 15362,
         "##崙": 15363,
         "##崛": 15364,
         "##崧": 15365,
         "##崩": 15366,
         "##崭": 15367,
         "##崴": 15368,
         "##崽": 15369,
         "##嵇": 15370,
         "##嵊": 15371,
         "##嵋": 15372,
         "##嵌": 15373,
         "##嵐": 15374,
         "##嵘": 15375,
         "##嵩": 15376,
         "##嵬": 15377,
         "##嵯": 15378,
         "##嶂": 15379,
         "##嶄": 15380,
         "##嶇": 15381,
         "##嶋": 15382,
         "##嶙": 15383,
         "##嶺": 15384,
         "##嶼": 15385,
         "##嶽": 15386,
         "##巅": 15387,
         "##巍": 15388,
         "##巒": 15389,
         "##巔": 15390,
         "##巖": 15391,
         "##川": 15392,
         "##州": 15393,
         "##巡": 15394,
         "##巢": 15395,
         "##工": 15396,
         "##左": 15397,
         "##巧": 15398,
         "##巨": 15399,
         "##巩": 15400,
         "##巫": 15401,
         "##差": 15402,
         "##己": 15403,
         "##已": 15404,
         "##巳": 15405,
         "##巴": 15406,
         "##巷": 15407,
         "##巻": 15408,
         "##巽": 15409,
         "##巾": 15410,
         "##巿": 15411,
         "##币": 15412,
         "##市": 15413,
         "##布": 15414,
         "##帅": 15415,
         "##帆": 15416,
         "##师": 15417,
         "##希": 15418,
         "##帐": 15419,
         "##帑": 15420,
         "##帕": 15421,
         "##帖": 15422,
         "##帘": 15423,
         "##帚": 15424,
         "##帛": 15425,
         "##帜": 15426,
         "##帝": 15427,
         "##帥": 15428,
         "##带": 15429,
         "##帧": 15430,
         "##師": 15431,
         "##席": 15432,
         "##帮": 15433,
         "##帯": 15434,
         "##帰": 15435,
         "##帳": 15436,
         "##帶": 15437,
         "##帷": 15438,
         "##常": 15439,
         "##帼": 15440,
         "##帽": 15441,
         "##幀": 15442,
         "##幂": 15443,
         "##幄": 15444,
         "##幅": 15445,
         "##幌": 15446,
         "##幔": 15447,
         "##幕": 15448,
         "##幟": 15449,
         "##幡": 15450,
         "##幢": 15451,
         "##幣": 15452,
         "##幫": 15453,
         "##干": 15454,
         "##平": 15455,
         "##年": 15456,
         "##并": 15457,
         "##幸": 15458,
         "##幹": 15459,
         "##幺": 15460,
         "##幻": 15461,
         "##幼": 15462,
         "##幽": 15463,
         "##幾": 15464,
         "##广": 15465,
         "##庁": 15466,
         "##広": 15467,
         "##庄": 15468,
         "##庆": 15469,
         "##庇": 15470,
         "##床": 15471,
         "##序": 15472,
         "##庐": 15473,
         "##库": 15474,
         "##应": 15475,
         "##底": 15476,
         "##庖": 15477,
         "##店": 15478,
         "##庙": 15479,
         "##庚": 15480,
         "##府": 15481,
         "##庞": 15482,
         "##废": 15483,
         "##庠": 15484,
         "##度": 15485,
         "##座": 15486,
         "##庫": 15487,
         "##庭": 15488,
         "##庵": 15489,
         "##庶": 15490,
         "##康": 15491,
         "##庸": 15492,
         "##庹": 15493,
         "##庾": 15494,
         "##廁": 15495,
         "##廂": 15496,
         "##廃": 15497,
         "##廈": 15498,
         "##廉": 15499,
         "##廊": 15500,
         "##廓": 15501,
         "##廖": 15502,
         "##廚": 15503,
         "##廝": 15504,
         "##廟": 15505,
         "##廠": 15506,
         "##廢": 15507,
         "##廣": 15508,
         "##廬": 15509,
         "##廳": 15510,
         "##延": 15511,
         "##廷": 15512,
         "##建": 15513,
         "##廿": 15514,
         "##开": 15515,
         "##弁": 15516,
         "##异": 15517,
         "##弃": 15518,
         "##弄": 15519,
         "##弈": 15520,
         "##弊": 15521,
         "##弋": 15522,
         "##式": 15523,
         "##弑": 15524,
         "##弒": 15525,
         "##弓": 15526,
         "##弔": 15527,
         "##引": 15528,
         "##弗": 15529,
         "##弘": 15530,
         "##弛": 15531,
         "##弟": 15532,
         "##张": 15533,
         "##弥": 15534,
         "##弦": 15535,
         "##弧": 15536,
         "##弩": 15537,
         "##弭": 15538,
         "##弯": 15539,
         "##弱": 15540,
         "##張": 15541,
         "##強": 15542,
         "##弹": 15543,
         "##强": 15544,
         "##弼": 15545,
         "##弾": 15546,
         "##彅": 15547,
         "##彆": 15548,
         "##彈": 15549,
         "##彌": 15550,
         "##彎": 15551,
         "##归": 15552,
         "##当": 15553,
         "##录": 15554,
         "##彗": 15555,
         "##彙": 15556,
         "##彝": 15557,
         "##形": 15558,
         "##彤": 15559,
         "##彥": 15560,
         "##彦": 15561,
         "##彧": 15562,
         "##彩": 15563,
         "##彪": 15564,
         "##彫": 15565,
         "##彬": 15566,
         "##彭": 15567,
         "##彰": 15568,
         "##影": 15569,
         "##彷": 15570,
         "##役": 15571,
         "##彻": 15572,
         "##彼": 15573,
         "##彿": 15574,
         "##往": 15575,
         "##征": 15576,
         "##径": 15577,
         "##待": 15578,
         "##徇": 15579,
         "##很": 15580,
         "##徉": 15581,
         "##徊": 15582,
         "##律": 15583,
         "##後": 15584,
         "##徐": 15585,
         "##徑": 15586,
         "##徒": 15587,
         "##従": 15588,
         "##徕": 15589,
         "##得": 15590,
         "##徘": 15591,
         "##徙": 15592,
         "##徜": 15593,
         "##從": 15594,
         "##徠": 15595,
         "##御": 15596,
         "##徨": 15597,
         "##復": 15598,
         "##循": 15599,
         "##徬": 15600,
         "##微": 15601,
         "##徳": 15602,
         "##徴": 15603,
         "##徵": 15604,
         "##德": 15605,
         "##徹": 15606,
         "##徼": 15607,
         "##徽": 15608,
         "##心": 15609,
         "##必": 15610,
         "##忆": 15611,
         "##忌": 15612,
         "##忍": 15613,
         "##忏": 15614,
         "##忐": 15615,
         "##忑": 15616,
         "##忒": 15617,
         "##忖": 15618,
         "##志": 15619,
         "##忘": 15620,
         "##忙": 15621,
         "##応": 15622,
         "##忠": 15623,
         "##忡": 15624,
         "##忤": 15625,
         "##忧": 15626,
         "##忪": 15627,
         "##快": 15628,
         "##忱": 15629,
         "##念": 15630,
         "##忻": 15631,
         "##忽": 15632,
         "##忿": 15633,
         "##怀": 15634,
         "##态": 15635,
         "##怂": 15636,
         "##怅": 15637,
         "##怆": 15638,
         "##怎": 15639,
         "##怏": 15640,
         "##怒": 15641,
         "##怔": 15642,
         "##怕": 15643,
         "##怖": 15644,
         "##怙": 15645,
         "##怜": 15646,
         "##思": 15647,
         "##怠": 15648,
         "##怡": 15649,
         "##急": 15650,
         "##怦": 15651,
         "##性": 15652,
         "##怨": 15653,
         "##怪": 15654,
         "##怯": 15655,
         "##怵": 15656,
         "##总": 15657,
         "##怼": 15658,
         "##恁": 15659,
         "##恃": 15660,
         "##恆": 15661,
         "##恋": 15662,
         "##恍": 15663,
         "##恐": 15664,
         "##恒": 15665,
         "##恕": 15666,
         "##恙": 15667,
         "##恚": 15668,
         "##恢": 15669,
         "##恣": 15670,
         "##恤": 15671,
         "##恥": 15672,
         "##恨": 15673,
         "##恩": 15674,
         "##恪": 15675,
         "##恫": 15676,
         "##恬": 15677,
         "##恭": 15678,
         "##息": 15679,
         "##恰": 15680,
         "##恳": 15681,
         "##恵": 15682,
         "##恶": 15683,
         "##恸": 15684,
         "##恺": 15685,
         "##恻": 15686,
         "##恼": 15687,
         "##恿": 15688,
         "##悄": 15689,
         "##悅": 15690,
         "##悉": 15691,
         "##悌": 15692,
         "##悍": 15693,
         "##悔": 15694,
         "##悖": 15695,
         "##悚": 15696,
         "##悟": 15697,
         "##悠": 15698,
         "##患": 15699,
         "##悦": 15700,
         "##您": 15701,
         "##悩": 15702,
         "##悪": 15703,
         "##悬": 15704,
         "##悯": 15705,
         "##悱": 15706,
         "##悲": 15707,
         "##悴": 15708,
         "##悵": 15709,
         "##悶": 15710,
         "##悸": 15711,
         "##悻": 15712,
         "##悼": 15713,
         "##悽": 15714,
         "##情": 15715,
         "##惆": 15716,
         "##惇": 15717,
         "##惊": 15718,
         "##惋": 15719,
         "##惑": 15720,
         "##惕": 15721,
         "##惘": 15722,
         "##惚": 15723,
         "##惜": 15724,
         "##惟": 15725,
         "##惠": 15726,
         "##惡": 15727,
         "##惦": 15728,
         "##惧": 15729,
         "##惨": 15730,
         "##惩": 15731,
         "##惫": 15732,
         "##惬": 15733,
         "##惭": 15734,
         "##惮": 15735,
         "##惯": 15736,
         "##惰": 15737,
         "##惱": 15738,
         "##想": 15739,
         "##惴": 15740,
         "##惶": 15741,
         "##惹": 15742,
         "##惺": 15743,
         "##愁": 15744,
         "##愆": 15745,
         "##愈": 15746,
         "##愉": 15747,
         "##愍": 15748,
         "##意": 15749,
         "##愕": 15750,
         "##愚": 15751,
         "##愛": 15752,
         "##愜": 15753,
         "##感": 15754,
         "##愣": 15755,
         "##愤": 15756,
         "##愧": 15757,
         "##愫": 15758,
         "##愷": 15759,
         "##愿": 15760,
         "##慄": 15761,
         "##慈": 15762,
         "##態": 15763,
         "##慌": 15764,
         "##慎": 15765,
         "##慑": 15766,
         "##慕": 15767,
         "##慘": 15768,
         "##慚": 15769,
         "##慟": 15770,
         "##慢": 15771,
         "##慣": 15772,
         "##慧": 15773,
         "##慨": 15774,
         "##慫": 15775,
         "##慮": 15776,
         "##慰": 15777,
         "##慳": 15778,
         "##慵": 15779,
         "##慶": 15780,
         "##慷": 15781,
         "##慾": 15782,
         "##憂": 15783,
         "##憊": 15784,
         "##憋": 15785,
         "##憎": 15786,
         "##憐": 15787,
         "##憑": 15788,
         "##憔": 15789,
         "##憚": 15790,
         "##憤": 15791,
         "##憧": 15792,
         "##憨": 15793,
         "##憩": 15794,
         "##憫": 15795,
         "##憬": 15796,
         "##憲": 15797,
         "##憶": 15798,
         "##憾": 15799,
         "##懂": 15800,
         "##懇": 15801,
         "##懈": 15802,
         "##應": 15803,
         "##懊": 15804,
         "##懋": 15805,
         "##懑": 15806,
         "##懒": 15807,
         "##懦": 15808,
         "##懲": 15809,
         "##懵": 15810,
         "##懶": 15811,
         "##懷": 15812,
         "##懸": 15813,
         "##懺": 15814,
         "##懼": 15815,
         "##懾": 15816,
         "##懿": 15817,
         "##戀": 15818,
         "##戈": 15819,
         "##戊": 15820,
         "##戌": 15821,
         "##戍": 15822,
         "##戎": 15823,
         "##戏": 15824,
         "##成": 15825,
         "##我": 15826,
         "##戒": 15827,
         "##戕": 15828,
         "##或": 15829,
         "##战": 15830,
         "##戚": 15831,
         "##戛": 15832,
         "##戟": 15833,
         "##戡": 15834,
         "##戦": 15835,
         "##截": 15836,
         "##戬": 15837,
         "##戮": 15838,
         "##戰": 15839,
         "##戲": 15840,
         "##戳": 15841,
         "##戴": 15842,
         "##戶": 15843,
         "##户": 15844,
         "##戸": 15845,
         "##戻": 15846,
         "##戾": 15847,
         "##房": 15848,
         "##所": 15849,
         "##扁": 15850,
         "##扇": 15851,
         "##扈": 15852,
         "##扉": 15853,
         "##手": 15854,
         "##才": 15855,
         "##扎": 15856,
         "##扑": 15857,
         "##扒": 15858,
         "##打": 15859,
         "##扔": 15860,
         "##払": 15861,
         "##托": 15862,
         "##扛": 15863,
         "##扣": 15864,
         "##扦": 15865,
         "##执": 15866,
         "##扩": 15867,
         "##扪": 15868,
         "##扫": 15869,
         "##扬": 15870,
         "##扭": 15871,
         "##扮": 15872,
         "##扯": 15873,
         "##扰": 15874,
         "##扱": 15875,
         "##扳": 15876,
         "##扶": 15877,
         "##批": 15878,
         "##扼": 15879,
         "##找": 15880,
         "##承": 15881,
         "##技": 15882,
         "##抄": 15883,
         "##抉": 15884,
         "##把": 15885,
         "##抑": 15886,
         "##抒": 15887,
         "##抓": 15888,
         "##投": 15889,
         "##抖": 15890,
         "##抗": 15891,
         "##折": 15892,
         "##抚": 15893,
         "##抛": 15894,
         "##抜": 15895,
         "##択": 15896,
         "##抟": 15897,
         "##抠": 15898,
         "##抡": 15899,
         "##抢": 15900,
         "##护": 15901,
         "##报": 15902,
         "##抨": 15903,
         "##披": 15904,
         "##抬": 15905,
         "##抱": 15906,
         "##抵": 15907,
         "##抹": 15908,
         "##押": 15909,
         "##抽": 15910,
         "##抿": 15911,
         "##拂": 15912,
         "##拄": 15913,
         "##担": 15914,
         "##拆": 15915,
         "##拇": 15916,
         "##拈": 15917,
         "##拉": 15918,
         "##拋": 15919,
         "##拌": 15920,
         "##拍": 15921,
         "##拎": 15922,
         "##拐": 15923,
         "##拒": 15924,
         "##拓": 15925,
         "##拔": 15926,
         "##拖": 15927,
         "##拗": 15928,
         "##拘": 15929,
         "##拙": 15930,
         "##拚": 15931,
         "##招": 15932,
         "##拜": 15933,
         "##拟": 15934,
         "##拡": 15935,
         "##拢": 15936,
         "##拣": 15937,
         "##拥": 15938,
         "##拦": 15939,
         "##拧": 15940,
         "##拨": 15941,
         "##择": 15942,
         "##括": 15943,
         "##拭": 15944,
         "##拮": 15945,
         "##拯": 15946,
         "##拱": 15947,
         "##拳": 15948,
         "##拴": 15949,
         "##拷": 15950,
         "##拼": 15951,
         "##拽": 15952,
         "##拾": 15953,
         "##拿": 15954,
         "##持": 15955,
         "##挂": 15956,
         "##指": 15957,
         "##挈": 15958,
         "##按": 15959,
         "##挎": 15960,
         "##挑": 15961,
         "##挖": 15962,
         "##挙": 15963,
         "##挚": 15964,
         "##挛": 15965,
         "##挝": 15966,
         "##挞": 15967,
         "##挟": 15968,
         "##挠": 15969,
         "##挡": 15970,
         "##挣": 15971,
         "##挤": 15972,
         "##挥": 15973,
         "##挨": 15974,
         "##挪": 15975,
         "##挫": 15976,
         "##振": 15977,
         "##挲": 15978,
         "##挹": 15979,
         "##挺": 15980,
         "##挽": 15981,
         "##挾": 15982,
         "##捂": 15983,
         "##捅": 15984,
         "##捆": 15985,
         "##捉": 15986,
         "##捋": 15987,
         "##捌": 15988,
         "##捍": 15989,
         "##捎": 15990,
         "##捏": 15991,
         "##捐": 15992,
         "##捕": 15993,
         "##捞": 15994,
         "##损": 15995,
         "##捡": 15996,
         "##换": 15997,
         "##捣": 15998,
         "##捧": 15999,
         "##捨": 16000,
         "##捩": 16001,
         "##据": 16002,
         "##捱": 16003,
         "##捲": 16004,
         "##捶": 16005,
         "##捷": 16006,
         "##捺": 16007,
         "##捻": 16008,
         "##掀": 16009,
         "##掂": 16010,
         "##掃": 16011,
         "##掇": 16012,
         "##授": 16013,
         "##掉": 16014,
         "##掌": 16015,
         "##掏": 16016,
         "##掐": 16017,
         "##排": 16018,
         "##掖": 16019,
         "##掘": 16020,
         "##掙": 16021,
         "##掛": 16022,
         "##掠": 16023,
         "##採": 16024,
         "##探": 16025,
         "##掣": 16026,
         "##接": 16027,
         "##控": 16028,
         "##推": 16029,
         "##掩": 16030,
         "##措": 16031,
         "##掬": 16032,
         "##掰": 16033,
         "##掲": 16034,
         "##掳": 16035,
         "##掴": 16036,
         "##掷": 16037,
         "##掸": 16038,
         "##掺": 16039,
         "##揀": 16040,
         "##揃": 16041,
         "##揄": 16042,
         "##揆": 16043,
         "##揉": 16044,
         "##揍": 16045,
         "##描": 16046,
         "##提": 16047,
         "##插": 16048,
         "##揖": 16049,
         "##揚": 16050,
         "##換": 16051,
         "##握": 16052,
         "##揣": 16053,
         "##揩": 16054,
         "##揪": 16055,
         "##揭": 16056,
         "##揮": 16057,
         "##援": 16058,
         "##揶": 16059,
         "##揸": 16060,
         "##揹": 16061,
         "##揽": 16062,
         "##搀": 16063,
         "##搁": 16064,
         "##搂": 16065,
         "##搅": 16066,
         "##損": 16067,
         "##搏": 16068,
         "##搐": 16069,
         "##搓": 16070,
         "##搔": 16071,
         "##搖": 16072,
         "##搗": 16073,
         "##搜": 16074,
         "##搞": 16075,
         "##搡": 16076,
         "##搪": 16077,
         "##搬": 16078,
         "##搭": 16079,
         "##搵": 16080,
         "##搶": 16081,
         "##携": 16082,
         "##搽": 16083,
         "##摀": 16084,
         "##摁": 16085,
         "##摄": 16086,
         "##摆": 16087,
         "##摇": 16088,
         "##摈": 16089,
         "##摊": 16090,
         "##摒": 16091,
         "##摔": 16092,
         "##摘": 16093,
         "##摞": 16094,
         "##摟": 16095,
         "##摧": 16096,
         "##摩": 16097,
         "##摯": 16098,
         "##摳": 16099,
         "##摸": 16100,
         "##摹": 16101,
         "##摺": 16102,
         "##摻": 16103,
         "##撂": 16104,
         "##撃": 16105,
         "##撅": 16106,
         "##撇": 16107,
         "##撈": 16108,
         "##撐": 16109,
         "##撑": 16110,
         "##撒": 16111,
         "##撓": 16112,
         "##撕": 16113,
         "##撚": 16114,
         "##撞": 16115,
         "##撤": 16116,
         "##撥": 16117,
         "##撩": 16118,
         "##撫": 16119,
         "##撬": 16120,
         "##播": 16121,
         "##撮": 16122,
         "##撰": 16123,
         "##撲": 16124,
         "##撵": 16125,
         "##撷": 16126,
         "##撸": 16127,
         "##撻": 16128,
         "##撼": 16129,
         "##撿": 16130,
         "##擀": 16131,
         "##擁": 16132,
         "##擂": 16133,
         "##擄": 16134,
         "##擅": 16135,
         "##擇": 16136,
         "##擊": 16137,
         "##擋": 16138,
         "##操": 16139,
         "##擎": 16140,
         "##擒": 16141,
         "##擔": 16142,
         "##擘": 16143,
         "##據": 16144,
         "##擞": 16145,
         "##擠": 16146,
         "##擡": 16147,
         "##擢": 16148,
         "##擦": 16149,
         "##擬": 16150,
         "##擰": 16151,
         "##擱": 16152,
         "##擲": 16153,
         "##擴": 16154,
         "##擷": 16155,
         "##擺": 16156,
         "##擼": 16157,
         "##擾": 16158,
         "##攀": 16159,
         "##攏": 16160,
         "##攒": 16161,
         "##攔": 16162,
         "##攘": 16163,
         "##攙": 16164,
         "##攜": 16165,
         "##攝": 16166,
         "##攞": 16167,
         "##攢": 16168,
         "##攣": 16169,
         "##攤": 16170,
         "##攥": 16171,
         "##攪": 16172,
         "##攫": 16173,
         "##攬": 16174,
         "##支": 16175,
         "##收": 16176,
         "##攸": 16177,
         "##改": 16178,
         "##攻": 16179,
         "##放": 16180,
         "##政": 16181,
         "##故": 16182,
         "##效": 16183,
         "##敌": 16184,
         "##敍": 16185,
         "##敎": 16186,
         "##敏": 16187,
         "##救": 16188,
         "##敕": 16189,
         "##敖": 16190,
         "##敗": 16191,
         "##敘": 16192,
         "##教": 16193,
         "##敛": 16194,
         "##敝": 16195,
         "##敞": 16196,
         "##敢": 16197,
         "##散": 16198,
         "##敦": 16199,
         "##敬": 16200,
         "##数": 16201,
         "##敲": 16202,
         "##整": 16203,
         "##敵": 16204,
         "##敷": 16205,
         "##數": 16206,
         "##斂": 16207,
         "##斃": 16208,
         "##文": 16209,
         "##斋": 16210,
         "##斌": 16211,
         "##斎": 16212,
         "##斐": 16213,
         "##斑": 16214,
         "##斓": 16215,
         "##斗": 16216,
         "##料": 16217,
         "##斛": 16218,
         "##斜": 16219,
         "##斟": 16220,
         "##斡": 16221,
         "##斤": 16222,
         "##斥": 16223,
         "##斧": 16224,
         "##斩": 16225,
         "##斫": 16226,
         "##斬": 16227,
         "##断": 16228,
         "##斯": 16229,
         "##新": 16230,
         "##斷": 16231,
         "##方": 16232,
         "##於": 16233,
         "##施": 16234,
         "##旁": 16235,
         "##旃": 16236,
         "##旅": 16237,
         "##旋": 16238,
         "##旌": 16239,
         "##旎": 16240,
         "##族": 16241,
         "##旖": 16242,
         "##旗": 16243,
         "##无": 16244,
         "##既": 16245,
         "##日": 16246,
         "##旦": 16247,
         "##旧": 16248,
         "##旨": 16249,
         "##早": 16250,
         "##旬": 16251,
         "##旭": 16252,
         "##旮": 16253,
         "##旱": 16254,
         "##时": 16255,
         "##旷": 16256,
         "##旺": 16257,
         "##旻": 16258,
         "##昀": 16259,
         "##昂": 16260,
         "##昆": 16261,
         "##昇": 16262,
         "##昉": 16263,
         "##昊": 16264,
         "##昌": 16265,
         "##明": 16266,
         "##昏": 16267,
         "##易": 16268,
         "##昔": 16269,
         "##昕": 16270,
         "##昙": 16271,
         "##星": 16272,
         "##映": 16273,
         "##春": 16274,
         "##昧": 16275,
         "##昨": 16276,
         "##昭": 16277,
         "##是": 16278,
         "##昱": 16279,
         "##昴": 16280,
         "##昵": 16281,
         "##昶": 16282,
         "##昼": 16283,
         "##显": 16284,
         "##晁": 16285,
         "##時": 16286,
         "##晃": 16287,
         "##晉": 16288,
         "##晋": 16289,
         "##晌": 16290,
         "##晏": 16291,
         "##晒": 16292,
         "##晓": 16293,
         "##晔": 16294,
         "##晕": 16295,
         "##晖": 16296,
         "##晗": 16297,
         "##晚": 16298,
         "##晝": 16299,
         "##晞": 16300,
         "##晟": 16301,
         "##晤": 16302,
         "##晦": 16303,
         "##晨": 16304,
         "##晩": 16305,
         "##普": 16306,
         "##景": 16307,
         "##晰": 16308,
         "##晴": 16309,
         "##晶": 16310,
         "##晷": 16311,
         "##智": 16312,
         "##晾": 16313,
         "##暂": 16314,
         "##暄": 16315,
         "##暇": 16316,
         "##暈": 16317,
         "##暉": 16318,
         "##暌": 16319,
         "##暐": 16320,
         "##暑": 16321,
         "##暖": 16322,
         "##暗": 16323,
         "##暝": 16324,
         "##暢": 16325,
         "##暧": 16326,
         "##暨": 16327,
         "##暫": 16328,
         "##暮": 16329,
         "##暱": 16330,
         "##暴": 16331,
         "##暸": 16332,
         "##暹": 16333,
         "##曄": 16334,
         "##曆": 16335,
         "##曇": 16336,
         "##曉": 16337,
         "##曖": 16338,
         "##曙": 16339,
         "##曜": 16340,
         "##曝": 16341,
         "##曠": 16342,
         "##曦": 16343,
         "##曬": 16344,
         "##曰": 16345,
         "##曲": 16346,
         "##曳": 16347,
         "##更": 16348,
         "##書": 16349,
         "##曹": 16350,
         "##曼": 16351,
         "##曾": 16352,
         "##替": 16353,
         "##最": 16354,
         "##會": 16355,
         "##月": 16356,
         "##有": 16357,
         "##朋": 16358,
         "##服": 16359,
         "##朐": 16360,
         "##朔": 16361,
         "##朕": 16362,
         "##朗": 16363,
         "##望": 16364,
         "##朝": 16365,
         "##期": 16366,
         "##朦": 16367,
         "##朧": 16368,
         "##木": 16369,
         "##未": 16370,
         "##末": 16371,
         "##本": 16372,
         "##札": 16373,
         "##朮": 16374,
         "##术": 16375,
         "##朱": 16376,
         "##朴": 16377,
         "##朵": 16378,
         "##机": 16379,
         "##朽": 16380,
         "##杀": 16381,
         "##杂": 16382,
         "##权": 16383,
         "##杆": 16384,
         "##杈": 16385,
         "##杉": 16386,
         "##李": 16387,
         "##杏": 16388,
         "##材": 16389,
         "##村": 16390,
         "##杓": 16391,
         "##杖": 16392,
         "##杜": 16393,
         "##杞": 16394,
         "##束": 16395,
         "##杠": 16396,
         "##条": 16397,
         "##来": 16398,
         "##杨": 16399,
         "##杭": 16400,
         "##杯": 16401,
         "##杰": 16402,
         "##東": 16403,
         "##杳": 16404,
         "##杵": 16405,
         "##杷": 16406,
         "##杼": 16407,
         "##松": 16408,
         "##板": 16409,
         "##极": 16410,
         "##构": 16411,
         "##枇": 16412,
         "##枉": 16413,
         "##枋": 16414,
         "##析": 16415,
         "##枕": 16416,
         "##林": 16417,
         "##枚": 16418,
         "##果": 16419,
         "##枝": 16420,
         "##枢": 16421,
         "##枣": 16422,
         "##枪": 16423,
         "##枫": 16424,
         "##枭": 16425,
         "##枯": 16426,
         "##枰": 16427,
         "##枱": 16428,
         "##枳": 16429,
         "##架": 16430,
         "##枷": 16431,
         "##枸": 16432,
         "##柄": 16433,
         "##柏": 16434,
         "##某": 16435,
         "##柑": 16436,
         "##柒": 16437,
         "##染": 16438,
         "##柔": 16439,
         "##柘": 16440,
         "##柚": 16441,
         "##柜": 16442,
         "##柞": 16443,
         "##柠": 16444,
         "##柢": 16445,
         "##查": 16446,
         "##柩": 16447,
         "##柬": 16448,
         "##柯": 16449,
         "##柱": 16450,
         "##柳": 16451,
         "##柴": 16452,
         "##柵": 16453,
         "##査": 16454,
         "##柿": 16455,
         "##栀": 16456,
         "##栃": 16457,
         "##栄": 16458,
         "##栅": 16459,
         "##标": 16460,
         "##栈": 16461,
         "##栉": 16462,
         "##栋": 16463,
         "##栎": 16464,
         "##栏": 16465,
         "##树": 16466,
         "##栓": 16467,
         "##栖": 16468,
         "##栗": 16469,
         "##校": 16470,
         "##栩": 16471,
         "##株": 16472,
         "##样": 16473,
         "##核": 16474,
         "##根": 16475,
         "##格": 16476,
         "##栽": 16477,
         "##栾": 16478,
         "##桀": 16479,
         "##桁": 16480,
         "##桂": 16481,
         "##桃": 16482,
         "##桅": 16483,
         "##框": 16484,
         "##案": 16485,
         "##桉": 16486,
         "##桌": 16487,
         "##桎": 16488,
         "##桐": 16489,
         "##桑": 16490,
         "##桓": 16491,
         "##桔": 16492,
         "##桜": 16493,
         "##桠": 16494,
         "##桡": 16495,
         "##桢": 16496,
         "##档": 16497,
         "##桥": 16498,
         "##桦": 16499,
         "##桧": 16500,
         "##桨": 16501,
         "##桩": 16502,
         "##桶": 16503,
         "##桿": 16504,
         "##梁": 16505,
         "##梅": 16506,
         "##梆": 16507,
         "##梏": 16508,
         "##梓": 16509,
         "##梗": 16510,
         "##條": 16511,
         "##梟": 16512,
         "##梢": 16513,
         "##梦": 16514,
         "##梧": 16515,
         "##梨": 16516,
         "##梭": 16517,
         "##梯": 16518,
         "##械": 16519,
         "##梳": 16520,
         "##梵": 16521,
         "##梶": 16522,
         "##检": 16523,
         "##棂": 16524,
         "##棄": 16525,
         "##棉": 16526,
         "##棋": 16527,
         "##棍": 16528,
         "##棒": 16529,
         "##棕": 16530,
         "##棗": 16531,
         "##棘": 16532,
         "##棚": 16533,
         "##棟": 16534,
         "##棠": 16535,
         "##棣": 16536,
         "##棧": 16537,
         "##森": 16538,
         "##棱": 16539,
         "##棲": 16540,
         "##棵": 16541,
         "##棹": 16542,
         "##棺": 16543,
         "##椁": 16544,
         "##椅": 16545,
         "##椋": 16546,
         "##植": 16547,
         "##椎": 16548,
         "##椒": 16549,
         "##検": 16550,
         "##椪": 16551,
         "##椭": 16552,
         "##椰": 16553,
         "##椹": 16554,
         "##椽": 16555,
         "##椿": 16556,
         "##楂": 16557,
         "##楊": 16558,
         "##楓": 16559,
         "##楔": 16560,
         "##楚": 16561,
         "##楝": 16562,
         "##楞": 16563,
         "##楠": 16564,
         "##楣": 16565,
         "##楨": 16566,
         "##楫": 16567,
         "##業": 16568,
         "##楮": 16569,
         "##極": 16570,
         "##楷": 16571,
         "##楸": 16572,
         "##楹": 16573,
         "##楼": 16574,
         "##楽": 16575,
         "##概": 16576,
         "##榄": 16577,
         "##榆": 16578,
         "##榈": 16579,
         "##榉": 16580,
         "##榔": 16581,
         "##榕": 16582,
         "##榖": 16583,
         "##榛": 16584,
         "##榜": 16585,
         "##榨": 16586,
         "##榫": 16587,
         "##榭": 16588,
         "##榮": 16589,
         "##榱": 16590,
         "##榴": 16591,
         "##榷": 16592,
         "##榻": 16593,
         "##槁": 16594,
         "##槃": 16595,
         "##構": 16596,
         "##槌": 16597,
         "##槍": 16598,
         "##槎": 16599,
         "##槐": 16600,
         "##槓": 16601,
         "##様": 16602,
         "##槛": 16603,
         "##槟": 16604,
         "##槤": 16605,
         "##槭": 16606,
         "##槲": 16607,
         "##槳": 16608,
         "##槻": 16609,
         "##槽": 16610,
         "##槿": 16611,
         "##樁": 16612,
         "##樂": 16613,
         "##樊": 16614,
         "##樑": 16615,
         "##樓": 16616,
         "##標": 16617,
         "##樞": 16618,
         "##樟": 16619,
         "##模": 16620,
         "##樣": 16621,
         "##権": 16622,
         "##横": 16623,
         "##樫": 16624,
         "##樯": 16625,
         "##樱": 16626,
         "##樵": 16627,
         "##樸": 16628,
         "##樹": 16629,
         "##樺": 16630,
         "##樽": 16631,
         "##樾": 16632,
         "##橄": 16633,
         "##橇": 16634,
         "##橋": 16635,
         "##橐": 16636,
         "##橘": 16637,
         "##橙": 16638,
         "##機": 16639,
         "##橡": 16640,
         "##橢": 16641,
         "##橫": 16642,
         "##橱": 16643,
         "##橹": 16644,
         "##橼": 16645,
         "##檀": 16646,
         "##檄": 16647,
         "##檎": 16648,
         "##檐": 16649,
         "##檔": 16650,
         "##檗": 16651,
         "##檜": 16652,
         "##檢": 16653,
         "##檬": 16654,
         "##檯": 16655,
         "##檳": 16656,
         "##檸": 16657,
         "##檻": 16658,
         "##櫃": 16659,
         "##櫚": 16660,
         "##櫛": 16661,
         "##櫥": 16662,
         "##櫸": 16663,
         "##櫻": 16664,
         "##欄": 16665,
         "##權": 16666,
         "##欒": 16667,
         "##欖": 16668,
         "##欠": 16669,
         "##次": 16670,
         "##欢": 16671,
         "##欣": 16672,
         "##欧": 16673,
         "##欲": 16674,
         "##欸": 16675,
         "##欺": 16676,
         "##欽": 16677,
         "##款": 16678,
         "##歆": 16679,
         "##歇": 16680,
         "##歉": 16681,
         "##歌": 16682,
         "##歎": 16683,
         "##歐": 16684,
         "##歓": 16685,
         "##歙": 16686,
         "##歛": 16687,
         "##歡": 16688,
         "##止": 16689,
         "##正": 16690,
         "##此": 16691,
         "##步": 16692,
         "##武": 16693,
         "##歧": 16694,
         "##歩": 16695,
         "##歪": 16696,
         "##歯": 16697,
         "##歲": 16698,
         "##歳": 16699,
         "##歴": 16700,
         "##歷": 16701,
         "##歸": 16702,
         "##歹": 16703,
         "##死": 16704,
         "##歼": 16705,
         "##殁": 16706,
         "##殃": 16707,
         "##殆": 16708,
         "##殇": 16709,
         "##殉": 16710,
         "##殊": 16711,
         "##残": 16712,
         "##殒": 16713,
         "##殓": 16714,
         "##殖": 16715,
         "##殘": 16716,
         "##殞": 16717,
         "##殡": 16718,
         "##殤": 16719,
         "##殭": 16720,
         "##殯": 16721,
         "##殲": 16722,
         "##殴": 16723,
         "##段": 16724,
         "##殷": 16725,
         "##殺": 16726,
         "##殼": 16727,
         "##殿": 16728,
         "##毀": 16729,
         "##毁": 16730,
         "##毂": 16731,
         "##毅": 16732,
         "##毆": 16733,
         "##毋": 16734,
         "##母": 16735,
         "##毎": 16736,
         "##每": 16737,
         "##毒": 16738,
         "##毓": 16739,
         "##比": 16740,
         "##毕": 16741,
         "##毗": 16742,
         "##毘": 16743,
         "##毙": 16744,
         "##毛": 16745,
         "##毡": 16746,
         "##毫": 16747,
         "##毯": 16748,
         "##毽": 16749,
         "##氈": 16750,
         "##氏": 16751,
         "##氐": 16752,
         "##民": 16753,
         "##氓": 16754,
         "##气": 16755,
         "##氖": 16756,
         "##気": 16757,
         "##氙": 16758,
         "##氛": 16759,
         "##氟": 16760,
         "##氡": 16761,
         "##氢": 16762,
         "##氣": 16763,
         "##氤": 16764,
         "##氦": 16765,
         "##氧": 16766,
         "##氨": 16767,
         "##氪": 16768,
         "##氫": 16769,
         "##氮": 16770,
         "##氯": 16771,
         "##氰": 16772,
         "##氲": 16773,
         "##水": 16774,
         "##氷": 16775,
         "##永": 16776,
         "##氹": 16777,
         "##氾": 16778,
         "##汀": 16779,
         "##汁": 16780,
         "##求": 16781,
         "##汆": 16782,
         "##汇": 16783,
         "##汉": 16784,
         "##汎": 16785,
         "##汐": 16786,
         "##汕": 16787,
         "##汗": 16788,
         "##汙": 16789,
         "##汛": 16790,
         "##汝": 16791,
         "##汞": 16792,
         "##江": 16793,
         "##池": 16794,
         "##污": 16795,
         "##汤": 16796,
         "##汨": 16797,
         "##汩": 16798,
         "##汪": 16799,
         "##汰": 16800,
         "##汲": 16801,
         "##汴": 16802,
         "##汶": 16803,
         "##汹": 16804,
         "##決": 16805,
         "##汽": 16806,
         "##汾": 16807,
         "##沁": 16808,
         "##沂": 16809,
         "##沃": 16810,
         "##沅": 16811,
         "##沈": 16812,
         "##沉": 16813,
         "##沌": 16814,
         "##沏": 16815,
         "##沐": 16816,
         "##沒": 16817,
         "##沓": 16818,
         "##沖": 16819,
         "##沙": 16820,
         "##沛": 16821,
         "##沟": 16822,
         "##没": 16823,
         "##沢": 16824,
         "##沣": 16825,
         "##沥": 16826,
         "##沦": 16827,
         "##沧": 16828,
         "##沪": 16829,
         "##沫": 16830,
         "##沭": 16831,
         "##沮": 16832,
         "##沱": 16833,
         "##河": 16834,
         "##沸": 16835,
         "##油": 16836,
         "##治": 16837,
         "##沼": 16838,
         "##沽": 16839,
         "##沾": 16840,
         "##沿": 16841,
         "##況": 16842,
         "##泄": 16843,
         "##泉": 16844,
         "##泊": 16845,
         "##泌": 16846,
         "##泓": 16847,
         "##法": 16848,
         "##泗": 16849,
         "##泛": 16850,
         "##泞": 16851,
         "##泠": 16852,
         "##泡": 16853,
         "##波": 16854,
         "##泣": 16855,
         "##泥": 16856,
         "##注": 16857,
         "##泪": 16858,
         "##泫": 16859,
         "##泮": 16860,
         "##泯": 16861,
         "##泰": 16862,
         "##泱": 16863,
         "##泳": 16864,
         "##泵": 16865,
         "##泷": 16866,
         "##泸": 16867,
         "##泻": 16868,
         "##泼": 16869,
         "##泽": 16870,
         "##泾": 16871,
         "##洁": 16872,
         "##洄": 16873,
         "##洋": 16874,
         "##洒": 16875,
         "##洗": 16876,
         "##洙": 16877,
         "##洛": 16878,
         "##洞": 16879,
         "##津": 16880,
         "##洩": 16881,
         "##洪": 16882,
         "##洮": 16883,
         "##洱": 16884,
         "##洲": 16885,
         "##洵": 16886,
         "##洶": 16887,
         "##洸": 16888,
         "##洹": 16889,
         "##活": 16890,
         "##洼": 16891,
         "##洽": 16892,
         "##派": 16893,
         "##流": 16894,
         "##浃": 16895,
         "##浄": 16896,
         "##浅": 16897,
         "##浆": 16898,
         "##浇": 16899,
         "##浊": 16900,
         "##测": 16901,
         "##济": 16902,
         "##浏": 16903,
         "##浑": 16904,
         "##浒": 16905,
         "##浓": 16906,
         "##浔": 16907,
         "##浙": 16908,
         "##浚": 16909,
         "##浜": 16910,
         "##浣": 16911,
         "##浦": 16912,
         "##浩": 16913,
         "##浪": 16914,
         "##浬": 16915,
         "##浮": 16916,
         "##浯": 16917,
         "##浴": 16918,
         "##海": 16919,
         "##浸": 16920,
         "##涂": 16921,
         "##涅": 16922,
         "##涇": 16923,
         "##消": 16924,
         "##涉": 16925,
         "##涌": 16926,
         "##涎": 16927,
         "##涓": 16928,
         "##涔": 16929,
         "##涕": 16930,
         "##涙": 16931,
         "##涛": 16932,
         "##涝": 16933,
         "##涞": 16934,
         "##涟": 16935,
         "##涠": 16936,
         "##涡": 16937,
         "##涣": 16938,
         "##涤": 16939,
         "##润": 16940,
         "##涧": 16941,
         "##涨": 16942,
         "##涩": 16943,
         "##涪": 16944,
         "##涮": 16945,
         "##涯": 16946,
         "##液": 16947,
         "##涵": 16948,
         "##涸": 16949,
         "##涼": 16950,
         "##涿": 16951,
         "##淀": 16952,
         "##淄": 16953,
         "##淅": 16954,
         "##淆": 16955,
         "##淇": 16956,
         "##淋": 16957,
         "##淌": 16958,
         "##淑": 16959,
         "##淒": 16960,
         "##淖": 16961,
         "##淘": 16962,
         "##淙": 16963,
         "##淚": 16964,
         "##淞": 16965,
         "##淡": 16966,
         "##淤": 16967,
         "##淦": 16968,
         "##淨": 16969,
         "##淩": 16970,
         "##淪": 16971,
         "##淫": 16972,
         "##淬": 16973,
         "##淮": 16974,
         "##深": 16975,
         "##淳": 16976,
         "##淵": 16977,
         "##混": 16978,
         "##淹": 16979,
         "##淺": 16980,
         "##添": 16981,
         "##淼": 16982,
         "##清": 16983,
         "##済": 16984,
         "##渉": 16985,
         "##渊": 16986,
         "##渋": 16987,
         "##渍": 16988,
         "##渎": 16989,
         "##渐": 16990,
         "##渔": 16991,
         "##渗": 16992,
         "##渙": 16993,
         "##渚": 16994,
         "##減": 16995,
         "##渝": 16996,
         "##渠": 16997,
         "##渡": 16998,
         "##渣": 16999,
         "##渤": 17000,
         "##渥": 17001,
         "##渦": 17002,
         "##温": 17003,
         "##測": 17004,
         "##渭": 17005,
         "##港": 17006,
         "##渲": 17007,
         "##渴": 17008,
         "##游": 17009,
         "##渺": 17010,
         "##渾": 17011,
         "##湃": 17012,
         "##湄": 17013,
         "##湊": 17014,
         "##湍": 17015,
         "##湖": 17016,
         "##湘": 17017,
         "##湛": 17018,
         "##湟": 17019,
         "##湧": 17020,
         "##湫": 17021,
         "##湮": 17022,
         "##湯": 17023,
         "##湳": 17024,
         "##湾": 17025,
         "##湿": 17026,
         "##満": 17027,
         "##溃": 17028,
         "##溅": 17029,
         "##溉": 17030,
         "##溏": 17031,
         "##源": 17032,
         "##準": 17033,
         "##溜": 17034,
         "##溝": 17035,
         "##溟": 17036,
         "##溢": 17037,
         "##溥": 17038,
         "##溧": 17039,
         "##溪": 17040,
         "##溫": 17041,
         "##溯": 17042,
         "##溱": 17043,
         "##溴": 17044,
         "##溶": 17045,
         "##溺": 17046,
         "##溼": 17047,
         "##滁": 17048,
         "##滂": 17049,
         "##滄": 17050,
         "##滅": 17051,
         "##滇": 17052,
         "##滋": 17053,
         "##滌": 17054,
         "##滑": 17055,
         "##滓": 17056,
         "##滔": 17057,
         "##滕": 17058,
         "##滙": 17059,
         "##滚": 17060,
         "##滝": 17061,
         "##滞": 17062,
         "##滟": 17063,
         "##满": 17064,
         "##滢": 17065,
         "##滤": 17066,
         "##滥": 17067,
         "##滦": 17068,
         "##滨": 17069,
         "##滩": 17070,
         "##滬": 17071,
         "##滯": 17072,
         "##滲": 17073,
         "##滴": 17074,
         "##滷": 17075,
         "##滸": 17076,
         "##滾": 17077,
         "##滿": 17078,
         "##漁": 17079,
         "##漂": 17080,
         "##漆": 17081,
         "##漉": 17082,
         "##漏": 17083,
         "##漓": 17084,
         "##演": 17085,
         "##漕": 17086,
         "##漠": 17087,
         "##漢": 17088,
         "##漣": 17089,
         "##漩": 17090,
         "##漪": 17091,
         "##漫": 17092,
         "##漬": 17093,
         "##漯": 17094,
         "##漱": 17095,
         "##漲": 17096,
         "##漳": 17097,
         "##漸": 17098,
         "##漾": 17099,
         "##漿": 17100,
         "##潆": 17101,
         "##潇": 17102,
         "##潋": 17103,
         "##潍": 17104,
         "##潑": 17105,
         "##潔": 17106,
         "##潘": 17107,
         "##潛": 17108,
         "##潜": 17109,
         "##潞": 17110,
         "##潟": 17111,
         "##潢": 17112,
         "##潤": 17113,
         "##潦": 17114,
         "##潧": 17115,
         "##潭": 17116,
         "##潮": 17117,
         "##潰": 17118,
         "##潴": 17119,
         "##潸": 17120,
         "##潺": 17121,
         "##潼": 17122,
         "##澀": 17123,
         "##澄": 17124,
         "##澆": 17125,
         "##澈": 17126,
         "##澍": 17127,
         "##澎": 17128,
         "##澗": 17129,
         "##澜": 17130,
         "##澡": 17131,
         "##澤": 17132,
         "##澧": 17133,
         "##澱": 17134,
         "##澳": 17135,
         "##澹": 17136,
         "##激": 17137,
         "##濁": 17138,
         "##濂": 17139,
         "##濃": 17140,
         "##濑": 17141,
         "##濒": 17142,
         "##濕": 17143,
         "##濘": 17144,
         "##濛": 17145,
         "##濟": 17146,
         "##濠": 17147,
         "##濡": 17148,
         "##濤": 17149,
         "##濫": 17150,
         "##濬": 17151,
         "##濮": 17152,
         "##濯": 17153,
         "##濱": 17154,
         "##濺": 17155,
         "##濾": 17156,
         "##瀅": 17157,
         "##瀆": 17158,
         "##瀉": 17159,
         "##瀋": 17160,
         "##瀏": 17161,
         "##瀑": 17162,
         "##瀕": 17163,
         "##瀘": 17164,
         "##瀚": 17165,
         "##瀛": 17166,
         "##瀝": 17167,
         "##瀞": 17168,
         "##瀟": 17169,
         "##瀧": 17170,
         "##瀨": 17171,
         "##瀬": 17172,
         "##瀰": 17173,
         "##瀾": 17174,
         "##灌": 17175,
         "##灏": 17176,
         "##灑": 17177,
         "##灘": 17178,
         "##灝": 17179,
         "##灞": 17180,
         "##灣": 17181,
         "##火": 17182,
         "##灬": 17183,
         "##灭": 17184,
         "##灯": 17185,
         "##灰": 17186,
         "##灵": 17187,
         "##灶": 17188,
         "##灸": 17189,
         "##灼": 17190,
         "##災": 17191,
         "##灾": 17192,
         "##灿": 17193,
         "##炀": 17194,
         "##炁": 17195,
         "##炅": 17196,
         "##炉": 17197,
         "##炊": 17198,
         "##炎": 17199,
         "##炒": 17200,
         "##炔": 17201,
         "##炕": 17202,
         "##炖": 17203,
         "##炙": 17204,
         "##炜": 17205,
         "##炫": 17206,
         "##炬": 17207,
         "##炭": 17208,
         "##炮": 17209,
         "##炯": 17210,
         "##炳": 17211,
         "##炷": 17212,
         "##炸": 17213,
         "##点": 17214,
         "##為": 17215,
         "##炼": 17216,
         "##炽": 17217,
         "##烁": 17218,
         "##烂": 17219,
         "##烃": 17220,
         "##烈": 17221,
         "##烊": 17222,
         "##烏": 17223,
         "##烘": 17224,
         "##烙": 17225,
         "##烛": 17226,
         "##烟": 17227,
         "##烤": 17228,
         "##烦": 17229,
         "##烧": 17230,
         "##烨": 17231,
         "##烩": 17232,
         "##烫": 17233,
         "##烬": 17234,
         "##热": 17235,
         "##烯": 17236,
         "##烷": 17237,
         "##烹": 17238,
         "##烽": 17239,
         "##焉": 17240,
         "##焊": 17241,
         "##焕": 17242,
         "##焖": 17243,
         "##焗": 17244,
         "##焘": 17245,
         "##焙": 17246,
         "##焚": 17247,
         "##焜": 17248,
         "##無": 17249,
         "##焦": 17250,
         "##焯": 17251,
         "##焰": 17252,
         "##焱": 17253,
         "##然": 17254,
         "##焼": 17255,
         "##煅": 17256,
         "##煉": 17257,
         "##煊": 17258,
         "##煌": 17259,
         "##煎": 17260,
         "##煒": 17261,
         "##煖": 17262,
         "##煙": 17263,
         "##煜": 17264,
         "##煞": 17265,
         "##煤": 17266,
         "##煥": 17267,
         "##煦": 17268,
         "##照": 17269,
         "##煨": 17270,
         "##煩": 17271,
         "##煮": 17272,
         "##煲": 17273,
         "##煸": 17274,
         "##煽": 17275,
         "##熄": 17276,
         "##熊": 17277,
         "##熏": 17278,
         "##熒": 17279,
         "##熔": 17280,
         "##熙": 17281,
         "##熟": 17282,
         "##熠": 17283,
         "##熨": 17284,
         "##熬": 17285,
         "##熱": 17286,
         "##熵": 17287,
         "##熹": 17288,
         "##熾": 17289,
         "##燁": 17290,
         "##燃": 17291,
         "##燄": 17292,
         "##燈": 17293,
         "##燉": 17294,
         "##燊": 17295,
         "##燎": 17296,
         "##燒": 17297,
         "##燔": 17298,
         "##燕": 17299,
         "##燙": 17300,
         "##燜": 17301,
         "##營": 17302,
         "##燥": 17303,
         "##燦": 17304,
         "##燧": 17305,
         "##燭": 17306,
         "##燮": 17307,
         "##燴": 17308,
         "##燻": 17309,
         "##燼": 17310,
         "##燿": 17311,
         "##爆": 17312,
         "##爍": 17313,
         "##爐": 17314,
         "##爛": 17315,
         "##爪": 17316,
         "##爬": 17317,
         "##爭": 17318,
         "##爰": 17319,
         "##爱": 17320,
         "##爲": 17321,
         "##爵": 17322,
         "##父": 17323,
         "##爷": 17324,
         "##爸": 17325,
         "##爹": 17326,
         "##爺": 17327,
         "##爻": 17328,
         "##爽": 17329,
         "##爾": 17330,
         "##牆": 17331,
         "##片": 17332,
         "##版": 17333,
         "##牌": 17334,
         "##牍": 17335,
         "##牒": 17336,
         "##牙": 17337,
         "##牛": 17338,
         "##牝": 17339,
         "##牟": 17340,
         "##牠": 17341,
         "##牡": 17342,
         "##牢": 17343,
         "##牦": 17344,
         "##牧": 17345,
         "##物": 17346,
         "##牯": 17347,
         "##牲": 17348,
         "##牴": 17349,
         "##牵": 17350,
         "##特": 17351,
         "##牺": 17352,
         "##牽": 17353,
         "##犀": 17354,
         "##犁": 17355,
         "##犄": 17356,
         "##犊": 17357,
         "##犍": 17358,
         "##犒": 17359,
         "##犢": 17360,
         "##犧": 17361,
         "##犬": 17362,
         "##犯": 17363,
         "##状": 17364,
         "##犷": 17365,
         "##犸": 17366,
         "##犹": 17367,
         "##狀": 17368,
         "##狂": 17369,
         "##狄": 17370,
         "##狈": 17371,
         "##狎": 17372,
         "##狐": 17373,
         "##狒": 17374,
         "##狗": 17375,
         "##狙": 17376,
         "##狞": 17377,
         "##狠": 17378,
         "##狡": 17379,
         "##狩": 17380,
         "##独": 17381,
         "##狭": 17382,
         "##狮": 17383,
         "##狰": 17384,
         "##狱": 17385,
         "##狸": 17386,
         "##狹": 17387,
         "##狼": 17388,
         "##狽": 17389,
         "##猎": 17390,
         "##猕": 17391,
         "##猖": 17392,
         "##猗": 17393,
         "##猙": 17394,
         "##猛": 17395,
         "##猜": 17396,
         "##猝": 17397,
         "##猥": 17398,
         "##猩": 17399,
         "##猪": 17400,
         "##猫": 17401,
         "##猬": 17402,
         "##献": 17403,
         "##猴": 17404,
         "##猶": 17405,
         "##猷": 17406,
         "##猾": 17407,
         "##猿": 17408,
         "##獄": 17409,
         "##獅": 17410,
         "##獎": 17411,
         "##獐": 17412,
         "##獒": 17413,
         "##獗": 17414,
         "##獠": 17415,
         "##獣": 17416,
         "##獨": 17417,
         "##獭": 17418,
         "##獰": 17419,
         "##獲": 17420,
         "##獵": 17421,
         "##獷": 17422,
         "##獸": 17423,
         "##獺": 17424,
         "##獻": 17425,
         "##獼": 17426,
         "##獾": 17427,
         "##玄": 17428,
         "##率": 17429,
         "##玉": 17430,
         "##王": 17431,
         "##玑": 17432,
         "##玖": 17433,
         "##玛": 17434,
         "##玟": 17435,
         "##玠": 17436,
         "##玥": 17437,
         "##玩": 17438,
         "##玫": 17439,
         "##玮": 17440,
         "##环": 17441,
         "##现": 17442,
         "##玲": 17443,
         "##玳": 17444,
         "##玷": 17445,
         "##玺": 17446,
         "##玻": 17447,
         "##珀": 17448,
         "##珂": 17449,
         "##珅": 17450,
         "##珈": 17451,
         "##珉": 17452,
         "##珊": 17453,
         "##珍": 17454,
         "##珏": 17455,
         "##珐": 17456,
         "##珑": 17457,
         "##珙": 17458,
         "##珞": 17459,
         "##珠": 17460,
         "##珣": 17461,
         "##珥": 17462,
         "##珩": 17463,
         "##珪": 17464,
         "##班": 17465,
         "##珮": 17466,
         "##珲": 17467,
         "##珺": 17468,
         "##現": 17469,
         "##球": 17470,
         "##琅": 17471,
         "##理": 17472,
         "##琇": 17473,
         "##琉": 17474,
         "##琊": 17475,
         "##琍": 17476,
         "##琏": 17477,
         "##琐": 17478,
         "##琛": 17479,
         "##琢": 17480,
         "##琥": 17481,
         "##琦": 17482,
         "##琨": 17483,
         "##琪": 17484,
         "##琬": 17485,
         "##琮": 17486,
         "##琰": 17487,
         "##琲": 17488,
         "##琳": 17489,
         "##琴": 17490,
         "##琵": 17491,
         "##琶": 17492,
         "##琺": 17493,
         "##琼": 17494,
         "##瑀": 17495,
         "##瑁": 17496,
         "##瑄": 17497,
         "##瑋": 17498,
         "##瑕": 17499,
         "##瑗": 17500,
         "##瑙": 17501,
         "##瑚": 17502,
         "##瑛": 17503,
         "##瑜": 17504,
         "##瑞": 17505,
         "##瑟": 17506,
         "##瑠": 17507,
         "##瑣": 17508,
         "##瑤": 17509,
         "##瑩": 17510,
         "##瑪": 17511,
         "##瑯": 17512,
         "##瑰": 17513,
         "##瑶": 17514,
         "##瑾": 17515,
         "##璀": 17516,
         "##璁": 17517,
         "##璃": 17518,
         "##璇": 17519,
         "##璉": 17520,
         "##璋": 17521,
         "##璎": 17522,
         "##璐": 17523,
         "##璜": 17524,
         "##璞": 17525,
         "##璟": 17526,
         "##璧": 17527,
         "##璨": 17528,
         "##環": 17529,
         "##璽": 17530,
         "##璿": 17531,
         "##瓊": 17532,
         "##瓏": 17533,
         "##瓒": 17534,
         "##瓜": 17535,
         "##瓢": 17536,
         "##瓣": 17537,
         "##瓤": 17538,
         "##瓦": 17539,
         "##瓮": 17540,
         "##瓯": 17541,
         "##瓴": 17542,
         "##瓶": 17543,
         "##瓷": 17544,
         "##甄": 17545,
         "##甌": 17546,
         "##甕": 17547,
         "##甘": 17548,
         "##甙": 17549,
         "##甚": 17550,
         "##甜": 17551,
         "##生": 17552,
         "##產": 17553,
         "##産": 17554,
         "##甥": 17555,
         "##甦": 17556,
         "##用": 17557,
         "##甩": 17558,
         "##甫": 17559,
         "##甬": 17560,
         "##甭": 17561,
         "##甯": 17562,
         "##田": 17563,
         "##由": 17564,
         "##甲": 17565,
         "##申": 17566,
         "##电": 17567,
         "##男": 17568,
         "##甸": 17569,
         "##町": 17570,
         "##画": 17571,
         "##甾": 17572,
         "##畀": 17573,
         "##畅": 17574,
         "##界": 17575,
         "##畏": 17576,
         "##畑": 17577,
         "##畔": 17578,
         "##留": 17579,
         "##畜": 17580,
         "##畝": 17581,
         "##畢": 17582,
         "##略": 17583,
         "##畦": 17584,
         "##番": 17585,
         "##畫": 17586,
         "##異": 17587,
         "##畲": 17588,
         "##畳": 17589,
         "##畴": 17590,
         "##當": 17591,
         "##畸": 17592,
         "##畹": 17593,
         "##畿": 17594,
         "##疆": 17595,
         "##疇": 17596,
         "##疊": 17597,
         "##疏": 17598,
         "##疑": 17599,
         "##疔": 17600,
         "##疖": 17601,
         "##疗": 17602,
         "##疙": 17603,
         "##疚": 17604,
         "##疝": 17605,
         "##疟": 17606,
         "##疡": 17607,
         "##疣": 17608,
         "##疤": 17609,
         "##疥": 17610,
         "##疫": 17611,
         "##疮": 17612,
         "##疯": 17613,
         "##疱": 17614,
         "##疲": 17615,
         "##疳": 17616,
         "##疵": 17617,
         "##疸": 17618,
         "##疹": 17619,
         "##疼": 17620,
         "##疽": 17621,
         "##疾": 17622,
         "##痂": 17623,
         "##病": 17624,
         "##症": 17625,
         "##痈": 17626,
         "##痉": 17627,
         "##痊": 17628,
         "##痍": 17629,
         "##痒": 17630,
         "##痔": 17631,
         "##痕": 17632,
         "##痘": 17633,
         "##痙": 17634,
         "##痛": 17635,
         "##痞": 17636,
         "##痠": 17637,
         "##痢": 17638,
         "##痣": 17639,
         "##痤": 17640,
         "##痧": 17641,
         "##痨": 17642,
         "##痪": 17643,
         "##痫": 17644,
         "##痰": 17645,
         "##痱": 17646,
         "##痴": 17647,
         "##痹": 17648,
         "##痺": 17649,
         "##痼": 17650,
         "##痿": 17651,
         "##瘀": 17652,
         "##瘁": 17653,
         "##瘋": 17654,
         "##瘍": 17655,
         "##瘓": 17656,
         "##瘘": 17657,
         "##瘙": 17658,
         "##瘟": 17659,
         "##瘠": 17660,
         "##瘡": 17661,
         "##瘢": 17662,
         "##瘤": 17663,
         "##瘦": 17664,
         "##瘧": 17665,
         "##瘩": 17666,
         "##瘪": 17667,
         "##瘫": 17668,
         "##瘴": 17669,
         "##瘸": 17670,
         "##瘾": 17671,
         "##療": 17672,
         "##癇": 17673,
         "##癌": 17674,
         "##癒": 17675,
         "##癖": 17676,
         "##癜": 17677,
         "##癞": 17678,
         "##癡": 17679,
         "##癢": 17680,
         "##癣": 17681,
         "##癥": 17682,
         "##癫": 17683,
         "##癬": 17684,
         "##癮": 17685,
         "##癱": 17686,
         "##癲": 17687,
         "##癸": 17688,
         "##発": 17689,
         "##登": 17690,
         "##發": 17691,
         "##白": 17692,
         "##百": 17693,
         "##皂": 17694,
         "##的": 17695,
         "##皆": 17696,
         "##皇": 17697,
         "##皈": 17698,
         "##皋": 17699,
         "##皎": 17700,
         "##皑": 17701,
         "##皓": 17702,
         "##皖": 17703,
         "##皙": 17704,
         "##皚": 17705,
         "##皮": 17706,
         "##皰": 17707,
         "##皱": 17708,
         "##皴": 17709,
         "##皺": 17710,
         "##皿": 17711,
         "##盂": 17712,
         "##盃": 17713,
         "##盅": 17714,
         "##盆": 17715,
         "##盈": 17716,
         "##益": 17717,
         "##盎": 17718,
         "##盏": 17719,
         "##盐": 17720,
         "##监": 17721,
         "##盒": 17722,
         "##盔": 17723,
         "##盖": 17724,
         "##盗": 17725,
         "##盘": 17726,
         "##盛": 17727,
         "##盜": 17728,
         "##盞": 17729,
         "##盟": 17730,
         "##盡": 17731,
         "##監": 17732,
         "##盤": 17733,
         "##盥": 17734,
         "##盧": 17735,
         "##盪": 17736,
         "##目": 17737,
         "##盯": 17738,
         "##盱": 17739,
         "##盲": 17740,
         "##直": 17741,
         "##相": 17742,
         "##盹": 17743,
         "##盼": 17744,
         "##盾": 17745,
         "##省": 17746,
         "##眈": 17747,
         "##眉": 17748,
         "##看": 17749,
         "##県": 17750,
         "##眙": 17751,
         "##眞": 17752,
         "##真": 17753,
         "##眠": 17754,
         "##眦": 17755,
         "##眨": 17756,
         "##眩": 17757,
         "##眯": 17758,
         "##眶": 17759,
         "##眷": 17760,
         "##眸": 17761,
         "##眺": 17762,
         "##眼": 17763,
         "##眾": 17764,
         "##着": 17765,
         "##睁": 17766,
         "##睇": 17767,
         "##睏": 17768,
         "##睐": 17769,
         "##睑": 17770,
         "##睛": 17771,
         "##睜": 17772,
         "##睞": 17773,
         "##睡": 17774,
         "##睢": 17775,
         "##督": 17776,
         "##睥": 17777,
         "##睦": 17778,
         "##睨": 17779,
         "##睪": 17780,
         "##睫": 17781,
         "##睬": 17782,
         "##睹": 17783,
         "##睽": 17784,
         "##睾": 17785,
         "##睿": 17786,
         "##瞄": 17787,
         "##瞅": 17788,
         "##瞇": 17789,
         "##瞋": 17790,
         "##瞌": 17791,
         "##瞎": 17792,
         "##瞑": 17793,
         "##瞒": 17794,
         "##瞓": 17795,
         "##瞞": 17796,
         "##瞟": 17797,
         "##瞠": 17798,
         "##瞥": 17799,
         "##瞧": 17800,
         "##瞩": 17801,
         "##瞪": 17802,
         "##瞬": 17803,
         "##瞭": 17804,
         "##瞰": 17805,
         "##瞳": 17806,
         "##瞻": 17807,
         "##瞼": 17808,
         "##瞿": 17809,
         "##矇": 17810,
         "##矍": 17811,
         "##矗": 17812,
         "##矚": 17813,
         "##矛": 17814,
         "##矜": 17815,
         "##矢": 17816,
         "##矣": 17817,
         "##知": 17818,
         "##矩": 17819,
         "##矫": 17820,
         "##短": 17821,
         "##矮": 17822,
         "##矯": 17823,
         "##石": 17824,
         "##矶": 17825,
         "##矽": 17826,
         "##矾": 17827,
         "##矿": 17828,
         "##码": 17829,
         "##砂": 17830,
         "##砌": 17831,
         "##砍": 17832,
         "##砒": 17833,
         "##研": 17834,
         "##砖": 17835,
         "##砗": 17836,
         "##砚": 17837,
         "##砝": 17838,
         "##砣": 17839,
         "##砥": 17840,
         "##砧": 17841,
         "##砭": 17842,
         "##砰": 17843,
         "##砲": 17844,
         "##破": 17845,
         "##砷": 17846,
         "##砸": 17847,
         "##砺": 17848,
         "##砼": 17849,
         "##砾": 17850,
         "##础": 17851,
         "##硅": 17852,
         "##硐": 17853,
         "##硒": 17854,
         "##硕": 17855,
         "##硝": 17856,
         "##硫": 17857,
         "##硬": 17858,
         "##确": 17859,
         "##硯": 17860,
         "##硼": 17861,
         "##碁": 17862,
         "##碇": 17863,
         "##碉": 17864,
         "##碌": 17865,
         "##碍": 17866,
         "##碎": 17867,
         "##碑": 17868,
         "##碓": 17869,
         "##碗": 17870,
         "##碘": 17871,
         "##碚": 17872,
         "##碛": 17873,
         "##碟": 17874,
         "##碣": 17875,
         "##碧": 17876,
         "##碩": 17877,
         "##碰": 17878,
         "##碱": 17879,
         "##碳": 17880,
         "##碴": 17881,
         "##確": 17882,
         "##碼": 17883,
         "##碾": 17884,
         "##磁": 17885,
         "##磅": 17886,
         "##磊": 17887,
         "##磋": 17888,
         "##磐": 17889,
         "##磕": 17890,
         "##磚": 17891,
         "##磡": 17892,
         "##磨": 17893,
         "##磬": 17894,
         "##磯": 17895,
         "##磲": 17896,
         "##磷": 17897,
         "##磺": 17898,
         "##礁": 17899,
         "##礎": 17900,
         "##礙": 17901,
         "##礡": 17902,
         "##礦": 17903,
         "##礪": 17904,
         "##礫": 17905,
         "##礴": 17906,
         "##示": 17907,
         "##礼": 17908,
         "##社": 17909,
         "##祀": 17910,
         "##祁": 17911,
         "##祂": 17912,
         "##祇": 17913,
         "##祈": 17914,
         "##祉": 17915,
         "##祎": 17916,
         "##祐": 17917,
         "##祕": 17918,
         "##祖": 17919,
         "##祗": 17920,
         "##祚": 17921,
         "##祛": 17922,
         "##祜": 17923,
         "##祝": 17924,
         "##神": 17925,
         "##祟": 17926,
         "##祠": 17927,
         "##祢": 17928,
         "##祥": 17929,
         "##票": 17930,
         "##祭": 17931,
         "##祯": 17932,
         "##祷": 17933,
         "##祸": 17934,
         "##祺": 17935,
         "##祿": 17936,
         "##禀": 17937,
         "##禁": 17938,
         "##禄": 17939,
         "##禅": 17940,
         "##禍": 17941,
         "##禎": 17942,
         "##福": 17943,
         "##禛": 17944,
         "##禦": 17945,
         "##禧": 17946,
         "##禪": 17947,
         "##禮": 17948,
         "##禱": 17949,
         "##禹": 17950,
         "##禺": 17951,
         "##离": 17952,
         "##禽": 17953,
         "##禾": 17954,
         "##禿": 17955,
         "##秀": 17956,
         "##私": 17957,
         "##秃": 17958,
         "##秆": 17959,
         "##秉": 17960,
         "##秋": 17961,
         "##种": 17962,
         "##科": 17963,
         "##秒": 17964,
         "##秘": 17965,
         "##租": 17966,
         "##秣": 17967,
         "##秤": 17968,
         "##秦": 17969,
         "##秧": 17970,
         "##秩": 17971,
         "##秭": 17972,
         "##积": 17973,
         "##称": 17974,
         "##秸": 17975,
         "##移": 17976,
         "##秽": 17977,
         "##稀": 17978,
         "##稅": 17979,
         "##程": 17980,
         "##稍": 17981,
         "##税": 17982,
         "##稔": 17983,
         "##稗": 17984,
         "##稚": 17985,
         "##稜": 17986,
         "##稞": 17987,
         "##稟": 17988,
         "##稠": 17989,
         "##稣": 17990,
         "##種": 17991,
         "##稱": 17992,
         "##稲": 17993,
         "##稳": 17994,
         "##稷": 17995,
         "##稹": 17996,
         "##稻": 17997,
         "##稼": 17998,
         "##稽": 17999,
         "##稿": 18000,
         "##穀": 18001,
         "##穂": 18002,
         "##穆": 18003,
         "##穌": 18004,
         "##積": 18005,
         "##穎": 18006,
         "##穗": 18007,
         "##穢": 18008,
         "##穩": 18009,
         "##穫": 18010,
         "##穴": 18011,
         "##究": 18012,
         "##穷": 18013,
         "##穹": 18014,
         "##空": 18015,
         "##穿": 18016,
         "##突": 18017,
         "##窃": 18018,
         "##窄": 18019,
         "##窈": 18020,
         "##窍": 18021,
         "##窑": 18022,
         "##窒": 18023,
         "##窓": 18024,
         "##窕": 18025,
         "##窖": 18026,
         "##窗": 18027,
         "##窘": 18028,
         "##窜": 18029,
         "##窝": 18030,
         "##窟": 18031,
         "##窠": 18032,
         "##窥": 18033,
         "##窦": 18034,
         "##窨": 18035,
         "##窩": 18036,
         "##窪": 18037,
         "##窮": 18038,
         "##窯": 18039,
         "##窺": 18040,
         "##窿": 18041,
         "##竄": 18042,
         "##竅": 18043,
         "##竇": 18044,
         "##竊": 18045,
         "##立": 18046,
         "##竖": 18047,
         "##站": 18048,
         "##竜": 18049,
         "##竞": 18050,
         "##竟": 18051,
         "##章": 18052,
         "##竣": 18053,
         "##童": 18054,
         "##竭": 18055,
         "##端": 18056,
         "##競": 18057,
         "##竹": 18058,
         "##竺": 18059,
         "##竽": 18060,
         "##竿": 18061,
         "##笃": 18062,
         "##笆": 18063,
         "##笈": 18064,
         "##笋": 18065,
         "##笏": 18066,
         "##笑": 18067,
         "##笔": 18068,
         "##笙": 18069,
         "##笛": 18070,
         "##笞": 18071,
         "##笠": 18072,
         "##符": 18073,
         "##笨": 18074,
         "##第": 18075,
         "##笹": 18076,
         "##笺": 18077,
         "##笼": 18078,
         "##筆": 18079,
         "##等": 18080,
         "##筊": 18081,
         "##筋": 18082,
         "##筍": 18083,
         "##筏": 18084,
         "##筐": 18085,
         "##筑": 18086,
         "##筒": 18087,
         "##答": 18088,
         "##策": 18089,
         "##筛": 18090,
         "##筝": 18091,
         "##筠": 18092,
         "##筱": 18093,
         "##筲": 18094,
         "##筵": 18095,
         "##筷": 18096,
         "##筹": 18097,
         "##签": 18098,
         "##简": 18099,
         "##箇": 18100,
         "##箋": 18101,
         "##箍": 18102,
         "##箏": 18103,
         "##箐": 18104,
         "##箔": 18105,
         "##箕": 18106,
         "##算": 18107,
         "##箝": 18108,
         "##管": 18109,
         "##箩": 18110,
         "##箫": 18111,
         "##箭": 18112,
         "##箱": 18113,
         "##箴": 18114,
         "##箸": 18115,
         "##節": 18116,
         "##篁": 18117,
         "##範": 18118,
         "##篆": 18119,
         "##篇": 18120,
         "##築": 18121,
         "##篑": 18122,
         "##篓": 18123,
         "##篙": 18124,
         "##篝": 18125,
         "##篠": 18126,
         "##篡": 18127,
         "##篤": 18128,
         "##篩": 18129,
         "##篪": 18130,
         "##篮": 18131,
         "##篱": 18132,
         "##篷": 18133,
         "##簇": 18134,
         "##簌": 18135,
         "##簍": 18136,
         "##簡": 18137,
         "##簦": 18138,
         "##簧": 18139,
         "##簪": 18140,
         "##簫": 18141,
         "##簷": 18142,
         "##簸": 18143,
         "##簽": 18144,
         "##簾": 18145,
         "##簿": 18146,
         "##籁": 18147,
         "##籃": 18148,
         "##籌": 18149,
         "##籍": 18150,
         "##籐": 18151,
         "##籟": 18152,
         "##籠": 18153,
         "##籤": 18154,
         "##籬": 18155,
         "##籮": 18156,
         "##籲": 18157,
         "##米": 18158,
         "##类": 18159,
         "##籼": 18160,
         "##籽": 18161,
         "##粄": 18162,
         "##粉": 18163,
         "##粑": 18164,
         "##粒": 18165,
         "##粕": 18166,
         "##粗": 18167,
         "##粘": 18168,
         "##粟": 18169,
         "##粤": 18170,
         "##粥": 18171,
         "##粧": 18172,
         "##粪": 18173,
         "##粮": 18174,
         "##粱": 18175,
         "##粲": 18176,
         "##粳": 18177,
         "##粵": 18178,
         "##粹": 18179,
         "##粼": 18180,
         "##粽": 18181,
         "##精": 18182,
         "##粿": 18183,
         "##糅": 18184,
         "##糊": 18185,
         "##糍": 18186,
         "##糕": 18187,
         "##糖": 18188,
         "##糗": 18189,
         "##糙": 18190,
         "##糜": 18191,
         "##糞": 18192,
         "##糟": 18193,
         "##糠": 18194,
         "##糧": 18195,
         "##糬": 18196,
         "##糯": 18197,
         "##糰": 18198,
         "##糸": 18199,
         "##系": 18200,
         "##糾": 18201,
         "##紀": 18202,
         "##紂": 18203,
         "##約": 18204,
         "##紅": 18205,
         "##紉": 18206,
         "##紊": 18207,
         "##紋": 18208,
         "##納": 18209,
         "##紐": 18210,
         "##紓": 18211,
         "##純": 18212,
         "##紗": 18213,
         "##紘": 18214,
         "##紙": 18215,
         "##級": 18216,
         "##紛": 18217,
         "##紜": 18218,
         "##素": 18219,
         "##紡": 18220,
         "##索": 18221,
         "##紧": 18222,
         "##紫": 18223,
         "##紮": 18224,
         "##累": 18225,
         "##細": 18226,
         "##紳": 18227,
         "##紹": 18228,
         "##紺": 18229,
         "##終": 18230,
         "##絃": 18231,
         "##組": 18232,
         "##絆": 18233,
         "##経": 18234,
         "##結": 18235,
         "##絕": 18236,
         "##絞": 18237,
         "##絡": 18238,
         "##絢": 18239,
         "##給": 18240,
         "##絨": 18241,
         "##絮": 18242,
         "##統": 18243,
         "##絲": 18244,
         "##絳": 18245,
         "##絵": 18246,
         "##絶": 18247,
         "##絹": 18248,
         "##綁": 18249,
         "##綏": 18250,
         "##綑": 18251,
         "##經": 18252,
         "##継": 18253,
         "##続": 18254,
         "##綜": 18255,
         "##綠": 18256,
         "##綢": 18257,
         "##綦": 18258,
         "##綫": 18259,
         "##綬": 18260,
         "##維": 18261,
         "##綱": 18262,
         "##網": 18263,
         "##綴": 18264,
         "##綵": 18265,
         "##綸": 18266,
         "##綺": 18267,
         "##綻": 18268,
         "##綽": 18269,
         "##綾": 18270,
         "##綿": 18271,
         "##緊": 18272,
         "##緋": 18273,
         "##総": 18274,
         "##緑": 18275,
         "##緒": 18276,
         "##緘": 18277,
         "##線": 18278,
         "##緝": 18279,
         "##緞": 18280,
         "##締": 18281,
         "##緣": 18282,
         "##編": 18283,
         "##緩": 18284,
         "##緬": 18285,
         "##緯": 18286,
         "##練": 18287,
         "##緹": 18288,
         "##緻": 18289,
         "##縁": 18290,
         "##縄": 18291,
         "##縈": 18292,
         "##縛": 18293,
         "##縝": 18294,
         "##縣": 18295,
         "##縫": 18296,
         "##縮": 18297,
         "##縱": 18298,
         "##縴": 18299,
         "##縷": 18300,
         "##總": 18301,
         "##績": 18302,
         "##繁": 18303,
         "##繃": 18304,
         "##繆": 18305,
         "##繇": 18306,
         "##繋": 18307,
         "##織": 18308,
         "##繕": 18309,
         "##繚": 18310,
         "##繞": 18311,
         "##繡": 18312,
         "##繩": 18313,
         "##繪": 18314,
         "##繫": 18315,
         "##繭": 18316,
         "##繳": 18317,
         "##繹": 18318,
         "##繼": 18319,
         "##繽": 18320,
         "##纂": 18321,
         "##續": 18322,
         "##纍": 18323,
         "##纏": 18324,
         "##纓": 18325,
         "##纔": 18326,
         "##纖": 18327,
         "##纜": 18328,
         "##纠": 18329,
         "##红": 18330,
         "##纣": 18331,
         "##纤": 18332,
         "##约": 18333,
         "##级": 18334,
         "##纨": 18335,
         "##纪": 18336,
         "##纫": 18337,
         "##纬": 18338,
         "##纭": 18339,
         "##纯": 18340,
         "##纰": 18341,
         "##纱": 18342,
         "##纲": 18343,
         "##纳": 18344,
         "##纵": 18345,
         "##纶": 18346,
         "##纷": 18347,
         "##纸": 18348,
         "##纹": 18349,
         "##纺": 18350,
         "##纽": 18351,
         "##纾": 18352,
         "##线": 18353,
         "##绀": 18354,
         "##练": 18355,
         "##组": 18356,
         "##绅": 18357,
         "##细": 18358,
         "##织": 18359,
         "##终": 18360,
         "##绊": 18361,
         "##绍": 18362,
         "##绎": 18363,
         "##经": 18364,
         "##绑": 18365,
         "##绒": 18366,
         "##结": 18367,
         "##绔": 18368,
         "##绕": 18369,
         "##绘": 18370,
         "##给": 18371,
         "##绚": 18372,
         "##绛": 18373,
         "##络": 18374,
         "##绝": 18375,
         "##绞": 18376,
         "##统": 18377,
         "##绡": 18378,
         "##绢": 18379,
         "##绣": 18380,
         "##绥": 18381,
         "##绦": 18382,
         "##继": 18383,
         "##绩": 18384,
         "##绪": 18385,
         "##绫": 18386,
         "##续": 18387,
         "##绮": 18388,
         "##绯": 18389,
         "##绰": 18390,
         "##绳": 18391,
         "##维": 18392,
         "##绵": 18393,
         "##绶": 18394,
         "##绷": 18395,
         "##绸": 18396,
         "##绻": 18397,
         "##综": 18398,
         "##绽": 18399,
         "##绾": 18400,
         "##绿": 18401,
         "##缀": 18402,
         "##缄": 18403,
         "##缅": 18404,
         "##缆": 18405,
         "##缇": 18406,
         "##缈": 18407,
         "##缉": 18408,
         "##缎": 18409,
         "##缓": 18410,
         "##缔": 18411,
         "##缕": 18412,
         "##编": 18413,
         "##缘": 18414,
         "##缙": 18415,
         "##缚": 18416,
         "##缜": 18417,
         "##缝": 18418,
         "##缠": 18419,
         "##缢": 18420,
         "##缤": 18421,
         "##缥": 18422,
         "##缨": 18423,
         "##缩": 18424,
         "##缪": 18425,
         "##缭": 18426,
         "##缮": 18427,
         "##缰": 18428,
         "##缱": 18429,
         "##缴": 18430,
         "##缸": 18431,
         "##缺": 18432,
         "##缽": 18433,
         "##罂": 18434,
         "##罄": 18435,
         "##罌": 18436,
         "##罐": 18437,
         "##网": 18438,
         "##罔": 18439,
         "##罕": 18440,
         "##罗": 18441,
         "##罚": 18442,
         "##罡": 18443,
         "##罢": 18444,
         "##罩": 18445,
         "##罪": 18446,
         "##置": 18447,
         "##罰": 18448,
         "##署": 18449,
         "##罵": 18450,
         "##罷": 18451,
         "##罹": 18452,
         "##羁": 18453,
         "##羅": 18454,
         "##羈": 18455,
         "##羊": 18456,
         "##羌": 18457,
         "##美": 18458,
         "##羔": 18459,
         "##羚": 18460,
         "##羞": 18461,
         "##羟": 18462,
         "##羡": 18463,
         "##羣": 18464,
         "##群": 18465,
         "##羥": 18466,
         "##羧": 18467,
         "##羨": 18468,
         "##義": 18469,
         "##羯": 18470,
         "##羲": 18471,
         "##羸": 18472,
         "##羹": 18473,
         "##羽": 18474,
         "##羿": 18475,
         "##翁": 18476,
         "##翅": 18477,
         "##翊": 18478,
         "##翌": 18479,
         "##翎": 18480,
         "##習": 18481,
         "##翔": 18482,
         "##翘": 18483,
         "##翟": 18484,
         "##翠": 18485,
         "##翡": 18486,
         "##翦": 18487,
         "##翩": 18488,
         "##翰": 18489,
         "##翱": 18490,
         "##翳": 18491,
         "##翹": 18492,
         "##翻": 18493,
         "##翼": 18494,
         "##耀": 18495,
         "##老": 18496,
         "##考": 18497,
         "##耄": 18498,
         "##者": 18499,
         "##耆": 18500,
         "##耋": 18501,
         "##而": 18502,
         "##耍": 18503,
         "##耐": 18504,
         "##耒": 18505,
         "##耕": 18506,
         "##耗": 18507,
         "##耘": 18508,
         "##耙": 18509,
         "##耦": 18510,
         "##耨": 18511,
         "##耳": 18512,
         "##耶": 18513,
         "##耷": 18514,
         "##耸": 18515,
         "##耻": 18516,
         "##耽": 18517,
         "##耿": 18518,
         "##聂": 18519,
         "##聆": 18520,
         "##聊": 18521,
         "##聋": 18522,
         "##职": 18523,
         "##聒": 18524,
         "##联": 18525,
         "##聖": 18526,
         "##聘": 18527,
         "##聚": 18528,
         "##聞": 18529,
         "##聪": 18530,
         "##聯": 18531,
         "##聰": 18532,
         "##聲": 18533,
         "##聳": 18534,
         "##聴": 18535,
         "##聶": 18536,
         "##職": 18537,
         "##聽": 18538,
         "##聾": 18539,
         "##聿": 18540,
         "##肃": 18541,
         "##肄": 18542,
         "##肅": 18543,
         "##肆": 18544,
         "##肇": 18545,
         "##肉": 18546,
         "##肋": 18547,
         "##肌": 18548,
         "##肏": 18549,
         "##肓": 18550,
         "##肖": 18551,
         "##肘": 18552,
         "##肚": 18553,
         "##肛": 18554,
         "##肝": 18555,
         "##肠": 18556,
         "##股": 18557,
         "##肢": 18558,
         "##肤": 18559,
         "##肥": 18560,
         "##肩": 18561,
         "##肪": 18562,
         "##肮": 18563,
         "##肯": 18564,
         "##肱": 18565,
         "##育": 18566,
         "##肴": 18567,
         "##肺": 18568,
         "##肽": 18569,
         "##肾": 18570,
         "##肿": 18571,
         "##胀": 18572,
         "##胁": 18573,
         "##胃": 18574,
         "##胄": 18575,
         "##胆": 18576,
         "##背": 18577,
         "##胍": 18578,
         "##胎": 18579,
         "##胖": 18580,
         "##胚": 18581,
         "##胛": 18582,
         "##胜": 18583,
         "##胝": 18584,
         "##胞": 18585,
         "##胡": 18586,
         "##胤": 18587,
         "##胥": 18588,
         "##胧": 18589,
         "##胫": 18590,
         "##胭": 18591,
         "##胯": 18592,
         "##胰": 18593,
         "##胱": 18594,
         "##胳": 18595,
         "##胴": 18596,
         "##胶": 18597,
         "##胸": 18598,
         "##胺": 18599,
         "##能": 18600,
         "##脂": 18601,
         "##脅": 18602,
         "##脆": 18603,
         "##脇": 18604,
         "##脈": 18605,
         "##脉": 18606,
         "##脊": 18607,
         "##脍": 18608,
         "##脏": 18609,
         "##脐": 18610,
         "##脑": 18611,
         "##脓": 18612,
         "##脖": 18613,
         "##脘": 18614,
         "##脚": 18615,
         "##脛": 18616,
         "##脣": 18617,
         "##脩": 18618,
         "##脫": 18619,
         "##脯": 18620,
         "##脱": 18621,
         "##脲": 18622,
         "##脳": 18623,
         "##脸": 18624,
         "##脹": 18625,
         "##脾": 18626,
         "##腆": 18627,
         "##腈": 18628,
         "##腊": 18629,
         "##腋": 18630,
         "##腌": 18631,
         "##腎": 18632,
         "##腐": 18633,
         "##腑": 18634,
         "##腓": 18635,
         "##腔": 18636,
         "##腕": 18637,
         "##腥": 18638,
         "##腦": 18639,
         "##腩": 18640,
         "##腫": 18641,
         "##腭": 18642,
         "##腮": 18643,
         "##腰": 18644,
         "##腱": 18645,
         "##腳": 18646,
         "##腴": 18647,
         "##腸": 18648,
         "##腹": 18649,
         "##腺": 18650,
         "##腻": 18651,
         "##腼": 18652,
         "##腾": 18653,
         "##腿": 18654,
         "##膀": 18655,
         "##膈": 18656,
         "##膊": 18657,
         "##膏": 18658,
         "##膑": 18659,
         "##膘": 18660,
         "##膚": 18661,
         "##膛": 18662,
         "##膜": 18663,
         "##膝": 18664,
         "##膠": 18665,
         "##膦": 18666,
         "##膨": 18667,
         "##膩": 18668,
         "##膳": 18669,
         "##膺": 18670,
         "##膻": 18671,
         "##膽": 18672,
         "##膾": 18673,
         "##膿": 18674,
         "##臀": 18675,
         "##臂": 18676,
         "##臃": 18677,
         "##臆": 18678,
         "##臉": 18679,
         "##臊": 18680,
         "##臍": 18681,
         "##臓": 18682,
         "##臘": 18683,
         "##臟": 18684,
         "##臣": 18685,
         "##臥": 18686,
         "##臧": 18687,
         "##臨": 18688,
         "##自": 18689,
         "##臬": 18690,
         "##臭": 18691,
         "##至": 18692,
         "##致": 18693,
         "##臺": 18694,
         "##臻": 18695,
         "##臼": 18696,
         "##臾": 18697,
         "##舀": 18698,
         "##舂": 18699,
         "##舅": 18700,
         "##舆": 18701,
         "##與": 18702,
         "##興": 18703,
         "##舉": 18704,
         "##舊": 18705,
         "##舌": 18706,
         "##舍": 18707,
         "##舎": 18708,
         "##舐": 18709,
         "##舒": 18710,
         "##舔": 18711,
         "##舖": 18712,
         "##舗": 18713,
         "##舛": 18714,
         "##舜": 18715,
         "##舞": 18716,
         "##舟": 18717,
         "##航": 18718,
         "##舫": 18719,
         "##般": 18720,
         "##舰": 18721,
         "##舱": 18722,
         "##舵": 18723,
         "##舶": 18724,
         "##舷": 18725,
         "##舸": 18726,
         "##船": 18727,
         "##舺": 18728,
         "##舾": 18729,
         "##艇": 18730,
         "##艋": 18731,
         "##艘": 18732,
         "##艙": 18733,
         "##艦": 18734,
         "##艮": 18735,
         "##良": 18736,
         "##艰": 18737,
         "##艱": 18738,
         "##色": 18739,
         "##艳": 18740,
         "##艷": 18741,
         "##艹": 18742,
         "##艺": 18743,
         "##艾": 18744,
         "##节": 18745,
         "##芃": 18746,
         "##芈": 18747,
         "##芊": 18748,
         "##芋": 18749,
         "##芍": 18750,
         "##芎": 18751,
         "##芒": 18752,
         "##芙": 18753,
         "##芜": 18754,
         "##芝": 18755,
         "##芡": 18756,
         "##芥": 18757,
         "##芦": 18758,
         "##芩": 18759,
         "##芪": 18760,
         "##芫": 18761,
         "##芬": 18762,
         "##芭": 18763,
         "##芮": 18764,
         "##芯": 18765,
         "##花": 18766,
         "##芳": 18767,
         "##芷": 18768,
         "##芸": 18769,
         "##芹": 18770,
         "##芻": 18771,
         "##芽": 18772,
         "##芾": 18773,
         "##苁": 18774,
         "##苄": 18775,
         "##苇": 18776,
         "##苋": 18777,
         "##苍": 18778,
         "##苏": 18779,
         "##苑": 18780,
         "##苒": 18781,
         "##苓": 18782,
         "##苔": 18783,
         "##苕": 18784,
         "##苗": 18785,
         "##苛": 18786,
         "##苜": 18787,
         "##苞": 18788,
         "##苟": 18789,
         "##苡": 18790,
         "##苣": 18791,
         "##若": 18792,
         "##苦": 18793,
         "##苫": 18794,
         "##苯": 18795,
         "##英": 18796,
         "##苷": 18797,
         "##苹": 18798,
         "##苻": 18799,
         "##茁": 18800,
         "##茂": 18801,
         "##范": 18802,
         "##茄": 18803,
         "##茅": 18804,
         "##茉": 18805,
         "##茎": 18806,
         "##茏": 18807,
         "##茗": 18808,
         "##茜": 18809,
         "##茧": 18810,
         "##茨": 18811,
         "##茫": 18812,
         "##茬": 18813,
         "##茭": 18814,
         "##茯": 18815,
         "##茱": 18816,
         "##茲": 18817,
         "##茴": 18818,
         "##茵": 18819,
         "##茶": 18820,
         "##茸": 18821,
         "##茹": 18822,
         "##茼": 18823,
         "##荀": 18824,
         "##荃": 18825,
         "##荆": 18826,
         "##草": 18827,
         "##荊": 18828,
         "##荏": 18829,
         "##荐": 18830,
         "##荒": 18831,
         "##荔": 18832,
         "##荖": 18833,
         "##荘": 18834,
         "##荚": 18835,
         "##荞": 18836,
         "##荟": 18837,
         "##荠": 18838,
         "##荡": 18839,
         "##荣": 18840,
         "##荤": 18841,
         "##荥": 18842,
         "##荧": 18843,
         "##荨": 18844,
         "##荪": 18845,
         "##荫": 18846,
         "##药": 18847,
         "##荳": 18848,
         "##荷": 18849,
         "##荸": 18850,
         "##荻": 18851,
         "##荼": 18852,
         "##荽": 18853,
         "##莅": 18854,
         "##莆": 18855,
         "##莉": 18856,
         "##莊": 18857,
         "##莎": 18858,
         "##莒": 18859,
         "##莓": 18860,
         "##莖": 18861,
         "##莘": 18862,
         "##莞": 18863,
         "##莠": 18864,
         "##莢": 18865,
         "##莧": 18866,
         "##莪": 18867,
         "##莫": 18868,
         "##莱": 18869,
         "##莲": 18870,
         "##莴": 18871,
         "##获": 18872,
         "##莹": 18873,
         "##莺": 18874,
         "##莽": 18875,
         "##莿": 18876,
         "##菀": 18877,
         "##菁": 18878,
         "##菅": 18879,
         "##菇": 18880,
         "##菈": 18881,
         "##菊": 18882,
         "##菌": 18883,
         "##菏": 18884,
         "##菓": 18885,
         "##菖": 18886,
         "##菘": 18887,
         "##菜": 18888,
         "##菟": 18889,
         "##菠": 18890,
         "##菡": 18891,
         "##菩": 18892,
         "##華": 18893,
         "##菱": 18894,
         "##菲": 18895,
         "##菸": 18896,
         "##菽": 18897,
         "##萁": 18898,
         "##萃": 18899,
         "##萄": 18900,
         "##萊": 18901,
         "##萋": 18902,
         "##萌": 18903,
         "##萍": 18904,
         "##萎": 18905,
         "##萘": 18906,
         "##萝": 18907,
         "##萤": 18908,
         "##营": 18909,
         "##萦": 18910,
         "##萧": 18911,
         "##萨": 18912,
         "##萩": 18913,
         "##萬": 18914,
         "##萱": 18915,
         "##萵": 18916,
         "##萸": 18917,
         "##萼": 18918,
         "##落": 18919,
         "##葆": 18920,
         "##葉": 18921,
         "##著": 18922,
         "##葚": 18923,
         "##葛": 18924,
         "##葡": 18925,
         "##董": 18926,
         "##葦": 18927,
         "##葩": 18928,
         "##葫": 18929,
         "##葬": 18930,
         "##葭": 18931,
         "##葯": 18932,
         "##葱": 18933,
         "##葳": 18934,
         "##葵": 18935,
         "##葷": 18936,
         "##葺": 18937,
         "##蒂": 18938,
         "##蒋": 18939,
         "##蒐": 18940,
         "##蒔": 18941,
         "##蒙": 18942,
         "##蒜": 18943,
         "##蒞": 18944,
         "##蒟": 18945,
         "##蒡": 18946,
         "##蒨": 18947,
         "##蒲": 18948,
         "##蒸": 18949,
         "##蒹": 18950,
         "##蒻": 18951,
         "##蒼": 18952,
         "##蒿": 18953,
         "##蓁": 18954,
         "##蓄": 18955,
         "##蓆": 18956,
         "##蓉": 18957,
         "##蓋": 18958,
         "##蓑": 18959,
         "##蓓": 18960,
         "##蓖": 18961,
         "##蓝": 18962,
         "##蓟": 18963,
         "##蓦": 18964,
         "##蓬": 18965,
         "##蓮": 18966,
         "##蓼": 18967,
         "##蓿": 18968,
         "##蔑": 18969,
         "##蔓": 18970,
         "##蔔": 18971,
         "##蔗": 18972,
         "##蔘": 18973,
         "##蔚": 18974,
         "##蔡": 18975,
         "##蔣": 18976,
         "##蔥": 18977,
         "##蔫": 18978,
         "##蔬": 18979,
         "##蔭": 18980,
         "##蔵": 18981,
         "##蔷": 18982,
         "##蔺": 18983,
         "##蔻": 18984,
         "##蔼": 18985,
         "##蔽": 18986,
         "##蕁": 18987,
         "##蕃": 18988,
         "##蕈": 18989,
         "##蕉": 18990,
         "##蕊": 18991,
         "##蕎": 18992,
         "##蕙": 18993,
         "##蕤": 18994,
         "##蕨": 18995,
         "##蕩": 18996,
         "##蕪": 18997,
         "##蕭": 18998,
         "##蕲": 18999,
         "##蕴": 19000,
         "##蕻": 19001,
         "##蕾": 19002,
         "##薄": 19003,
         "##薅": 19004,
         "##薇": 19005,
         "##薈": 19006,
         "##薊": 19007,
         "##薏": 19008,
         "##薑": 19009,
         "##薔": 19010,
         "##薙": 19011,
         "##薛": 19012,
         "##薦": 19013,
         "##薨": 19014,
         "##薩": 19015,
         "##薪": 19016,
         "##薬": 19017,
         "##薯": 19018,
         "##薰": 19019,
         "##薹": 19020,
         "##藉": 19021,
         "##藍": 19022,
         "##藏": 19023,
         "##藐": 19024,
         "##藓": 19025,
         "##藕": 19026,
         "##藜": 19027,
         "##藝": 19028,
         "##藤": 19029,
         "##藥": 19030,
         "##藩": 19031,
         "##藹": 19032,
         "##藻": 19033,
         "##藿": 19034,
         "##蘆": 19035,
         "##蘇": 19036,
         "##蘊": 19037,
         "##蘋": 19038,
         "##蘑": 19039,
         "##蘚": 19040,
         "##蘭": 19041,
         "##蘸": 19042,
         "##蘼": 19043,
         "##蘿": 19044,
         "##虎": 19045,
         "##虏": 19046,
         "##虐": 19047,
         "##虑": 19048,
         "##虔": 19049,
         "##處": 19050,
         "##虚": 19051,
         "##虛": 19052,
         "##虜": 19053,
         "##虞": 19054,
         "##號": 19055,
         "##虢": 19056,
         "##虧": 19057,
         "##虫": 19058,
         "##虬": 19059,
         "##虱": 19060,
         "##虹": 19061,
         "##虻": 19062,
         "##虽": 19063,
         "##虾": 19064,
         "##蚀": 19065,
         "##蚁": 19066,
         "##蚂": 19067,
         "##蚊": 19068,
         "##蚌": 19069,
         "##蚓": 19070,
         "##蚕": 19071,
         "##蚜": 19072,
         "##蚝": 19073,
         "##蚣": 19074,
         "##蚤": 19075,
         "##蚩": 19076,
         "##蚪": 19077,
         "##蚯": 19078,
         "##蚱": 19079,
         "##蚵": 19080,
         "##蛀": 19081,
         "##蛆": 19082,
         "##蛇": 19083,
         "##蛊": 19084,
         "##蛋": 19085,
         "##蛎": 19086,
         "##蛐": 19087,
         "##蛔": 19088,
         "##蛙": 19089,
         "##蛛": 19090,
         "##蛟": 19091,
         "##蛤": 19092,
         "##蛭": 19093,
         "##蛮": 19094,
         "##蛰": 19095,
         "##蛳": 19096,
         "##蛹": 19097,
         "##蛻": 19098,
         "##蛾": 19099,
         "##蜀": 19100,
         "##蜂": 19101,
         "##蜃": 19102,
         "##蜆": 19103,
         "##蜇": 19104,
         "##蜈": 19105,
         "##蜊": 19106,
         "##蜍": 19107,
         "##蜒": 19108,
         "##蜓": 19109,
         "##蜕": 19110,
         "##蜗": 19111,
         "##蜘": 19112,
         "##蜚": 19113,
         "##蜜": 19114,
         "##蜡": 19115,
         "##蜢": 19116,
         "##蜥": 19117,
         "##蜱": 19118,
         "##蜴": 19119,
         "##蜷": 19120,
         "##蜻": 19121,
         "##蜿": 19122,
         "##蝇": 19123,
         "##蝈": 19124,
         "##蝉": 19125,
         "##蝌": 19126,
         "##蝎": 19127,
         "##蝕": 19128,
         "##蝗": 19129,
         "##蝙": 19130,
         "##蝟": 19131,
         "##蝠": 19132,
         "##蝦": 19133,
         "##蝨": 19134,
         "##蝴": 19135,
         "##蝶": 19136,
         "##蝸": 19137,
         "##蝼": 19138,
         "##螂": 19139,
         "##螃": 19140,
         "##融": 19141,
         "##螞": 19142,
         "##螢": 19143,
         "##螨": 19144,
         "##螯": 19145,
         "##螳": 19146,
         "##螺": 19147,
         "##蟀": 19148,
         "##蟄": 19149,
         "##蟆": 19150,
         "##蟋": 19151,
         "##蟎": 19152,
         "##蟑": 19153,
         "##蟒": 19154,
         "##蟠": 19155,
         "##蟬": 19156,
         "##蟲": 19157,
         "##蟹": 19158,
         "##蟻": 19159,
         "##蟾": 19160,
         "##蠅": 19161,
         "##蠍": 19162,
         "##蠔": 19163,
         "##蠕": 19164,
         "##蠛": 19165,
         "##蠟": 19166,
         "##蠡": 19167,
         "##蠢": 19168,
         "##蠣": 19169,
         "##蠱": 19170,
         "##蠶": 19171,
         "##蠹": 19172,
         "##蠻": 19173,
         "##血": 19174,
         "##衄": 19175,
         "##衅": 19176,
         "##衆": 19177,
         "##行": 19178,
         "##衍": 19179,
         "##術": 19180,
         "##衔": 19181,
         "##街": 19182,
         "##衙": 19183,
         "##衛": 19184,
         "##衝": 19185,
         "##衞": 19186,
         "##衡": 19187,
         "##衢": 19188,
         "##衣": 19189,
         "##补": 19190,
         "##表": 19191,
         "##衩": 19192,
         "##衫": 19193,
         "##衬": 19194,
         "##衮": 19195,
         "##衰": 19196,
         "##衲": 19197,
         "##衷": 19198,
         "##衹": 19199,
         "##衾": 19200,
         "##衿": 19201,
         "##袁": 19202,
         "##袂": 19203,
         "##袄": 19204,
         "##袅": 19205,
         "##袈": 19206,
         "##袋": 19207,
         "##袍": 19208,
         "##袒": 19209,
         "##袖": 19210,
         "##袜": 19211,
         "##袞": 19212,
         "##袤": 19213,
         "##袪": 19214,
         "##被": 19215,
         "##袭": 19216,
         "##袱": 19217,
         "##裁": 19218,
         "##裂": 19219,
         "##装": 19220,
         "##裆": 19221,
         "##裊": 19222,
         "##裏": 19223,
         "##裔": 19224,
         "##裕": 19225,
         "##裘": 19226,
         "##裙": 19227,
         "##補": 19228,
         "##裝": 19229,
         "##裟": 19230,
         "##裡": 19231,
         "##裤": 19232,
         "##裨": 19233,
         "##裱": 19234,
         "##裳": 19235,
         "##裴": 19236,
         "##裸": 19237,
         "##裹": 19238,
         "##製": 19239,
         "##裾": 19240,
         "##褂": 19241,
         "##複": 19242,
         "##褐": 19243,
         "##褒": 19244,
         "##褓": 19245,
         "##褔": 19246,
         "##褚": 19247,
         "##褥": 19248,
         "##褪": 19249,
         "##褫": 19250,
         "##褲": 19251,
         "##褶": 19252,
         "##褻": 19253,
         "##襁": 19254,
         "##襄": 19255,
         "##襟": 19256,
         "##襠": 19257,
         "##襪": 19258,
         "##襬": 19259,
         "##襯": 19260,
         "##襲": 19261,
         "##西": 19262,
         "##要": 19263,
         "##覃": 19264,
         "##覆": 19265,
         "##覇": 19266,
         "##見": 19267,
         "##規": 19268,
         "##覓": 19269,
         "##視": 19270,
         "##覚": 19271,
         "##覦": 19272,
         "##覧": 19273,
         "##親": 19274,
         "##覬": 19275,
         "##観": 19276,
         "##覷": 19277,
         "##覺": 19278,
         "##覽": 19279,
         "##觀": 19280,
         "##见": 19281,
         "##观": 19282,
         "##规": 19283,
         "##觅": 19284,
         "##视": 19285,
         "##览": 19286,
         "##觉": 19287,
         "##觊": 19288,
         "##觎": 19289,
         "##觐": 19290,
         "##觑": 19291,
         "##角": 19292,
         "##觞": 19293,
         "##解": 19294,
         "##觥": 19295,
         "##触": 19296,
         "##觸": 19297,
         "##言": 19298,
         "##訂": 19299,
         "##計": 19300,
         "##訊": 19301,
         "##討": 19302,
         "##訓": 19303,
         "##訕": 19304,
         "##訖": 19305,
         "##託": 19306,
         "##記": 19307,
         "##訛": 19308,
         "##訝": 19309,
         "##訟": 19310,
         "##訣": 19311,
         "##訥": 19312,
         "##訪": 19313,
         "##設": 19314,
         "##許": 19315,
         "##訳": 19316,
         "##訴": 19317,
         "##訶": 19318,
         "##診": 19319,
         "##註": 19320,
         "##証": 19321,
         "##詆": 19322,
         "##詐": 19323,
         "##詔": 19324,
         "##評": 19325,
         "##詛": 19326,
         "##詞": 19327,
         "##詠": 19328,
         "##詡": 19329,
         "##詢": 19330,
         "##詣": 19331,
         "##試": 19332,
         "##詩": 19333,
         "##詫": 19334,
         "##詬": 19335,
         "##詭": 19336,
         "##詮": 19337,
         "##詰": 19338,
         "##話": 19339,
         "##該": 19340,
         "##詳": 19341,
         "##詹": 19342,
         "##詼": 19343,
         "##誅": 19344,
[...]
